▁, 875945
▁ 639720
s 542180
▁. 388309
▁the 317145
的 316433
▁。 246720
▁and 224972
▁to 211446
▁a 201875
' 176309
▁of 174332
t 164357
▁in 152057
▁that 141548
▁i 133157
▁it 112935
re 109038
▁we 108412
d 101256
▁you 100863
ing 96313
▁is 93170
ed 80351
在 75518
e 75277
是 74440
▁this 69729
▁" 68549
▁? 68317
了 67253
▁so 63648
m 59986
y 59299
n 59271
▁for 53670
▁我 52334
ly 50616
er 50096
有 49882
: 49796
我 49110
▁they 48987
▁was 47262
▁are 46428
我們 45647
一 45388
人 45316
c 45059
▁我們 43280
▁be 43143
▁but 42931
▁have 41579
▁on 41537
不 41424
al 40951
▁what 39610
▁with 39515
會 38705
▁can 38506
g 38101
、 37950
上 37873
和 37522
▁as 36649
r 36264
a 36117
ve 35100
到 34787
le 34561
ri 34183
o 33491
ic 33309
▁at 33075
來 32877
ll 32706
▁do 32360
大 31727
▁not 31018
or 31010
▁about 30550
▁there 29836
▁my 29801
th 29172
▁all 29039
▁me 28741
說 28653
ar 28508
ur 28427
你 28124
▁one 27506
▁an 27358
中 27235
in 26614
▁like 26499
▁or 26477
p 26428
一個 26291
很 26087
ce 25833
▁he 25738
b 25627
▁people 25557
es 25428
▁our 25102
這 24849
▁「 24713
▁」 24617
要 24577
▁from 24324
ation 24067
li 24014
▁if 23966
▁de 23948
能 23734
ent 23542
對 23527
時 23303
▁p 23062
用 22692
▁when 21804
都 21641
▁just 21593
▁e 21487
他們 21383
地 21255
k 21193
▁st 21063
▁co 20981
▁now 20760
出 20668
▁con 20667
年 20654
▁these 20652
▁f 20372
就 20005
▁這 19797
▁us 19688
▁out 19682
h 19608
u 19587
去 19541
▁by 19266
ion 19226
被 19041
▁在 19038
▁how 19011
所 19005
▁because 18923
▁up 18687
子 18624
▁know 18523
這些 18454
可以 18402
▁c 18393
這個 18359
▁但 18357
▁你 18222
做 18119
ch 18051
▁more 17958
▁them 17866
ate 17850
il 17761
▁their 17651
ter 17540
也 17396
為 17385
▁who 17251
▁your 17184
ity 17041
ers 16981
▁had 16940
著 16745
▁see 16669
very 16635
過 16623
it 16546
下 16535
▁no 16410
▁were 16352
▁would 16254
▁ex 16187
它 16177
▁b 16102
最 15745
把 15719
ck 15682
想 15655
▁他們 15635
en 15518
▁going 15484
w 15439
好 15396
f 15263
他 15200
▁get 15139
▁think 15105
於 14902
ment 14830
an 14812
從 14775
成 14741
▁some 14519
te 14456
on 14380
多 14326
小 14230
▁go 14183
ive 14182
▁which 14139
體 14032
ci 14010
ro 14007
生 13924
ol 13899
x 13872
▁world 13774
▁time 13735
看 13695
▁really 13560
個 13549
▁other 13491
▁po 13457
ra 13454
裡 13319
得 13219
沒有 13218
▁here 13205
者 13188
性 13182
un 13061
▁then 13004
更 12987
▁has 12833
將 12739
▁mo 12734
est 12714
▁所以 12710
▁will 12708
ru 12651
ge 12646
▁don 12619
的人 12552
與 12548
開始 12471
▁into 12402
而 12317
ul 12280
家 12234
以 12177
ne 12093
op 12084
om 12082
後 12075
i 11991
ies 11910
▁where 11909
▁she 11850
心 11730
as 11669
▁way 11643
▁這是 11628
▁could 11564
面 11554
▁而 11539
就是 11533
tic 11509
ver 11489
us 11458
id 11425
lo 11409
▁se 11345
點 11305
▁w 11273
▁un 11263
行 11254
力 11253
age 11227
▁years 11225
z 11189
▁look 11188
▁even 11172
lu 11127
vi 11055
▁want 11035
▁work 10996
▁他 10959
ph 10934
之 10924
▁new 10884
de 10876
可 10853
▁actually 10849
▁su 10841
非常 10813
分 10804
▁make 10760
▁sp 10752
▁right 10710
給 10692
▁over 10678
動 10613
▁been 10572
像 10553
那 10552
▁things 10503
tra 10476
比 10466
▁它 10241
pe 10240
知道 10236
數 10210
tion 10188
不是 10177
▁pro 10165
▁well 10164
able 10140
com 10129
el 10111
還 10069
ad 10060
l 10052
ted 10036
those 9990
化 9984
▁ma 9965
高 9944
ect 9908
▁first 9830
▁因為 9761
▁than 9690
天 9682
無 9650
▁need 9623
長 9589
斯 9585
法 9469
ance 9461
v 9459
▁di 9443
ting 9415
ant 9387
讓 9375
▁; 9353
需要 9351
▁two 9313
▁vi 9280
同 9273
發 9257
▁dis 9234
la 9232
▁also 9221
▁his 9211
ma 9192
開 9184
▁ba 9181
手 9172
種 9159
機 9107
▁most 9106
物 9082
▁bo 9062
自己 9052
正 9041
學 9013
ction 9011
▁back 8983
進 8972
▁! 8963
▁ra 8945
ally 8935
▁something 8933
▁ho 8925
▁life 8903
當 8883
什麼 8854
ence 8807
位 8802
▁take 8799
ry 8788
5 8776
重 8768
前 8745
im 8734
加 8720
事 8719
特 8703
▁her 8686
定 8641
理 8634
. 8632
▁any 8582
可能 8563
na 8543
▁much 8535
▁ro 8530
或 8509
公 8490
um 8482
度 8480
ical 8459
ow 8422
at 8420
一些 8411
合 8407
如何 8399
▁come 8396
▁en 8396
水 8363
量 8362
▁said 8352
外 8343
me 8334
▁only 8315
相 8295
▁part 8279
is 8243
▁many 8229
▁every 8222
問題 8184
▁li 8183
▁sh 8179
0 8172
ld 8163
入 8129
我的 8084
mo 8081
po 8066
嗎 8058
▁pre 8055
向 8053
已經 8018
qu 8012
作 8001
min 7956
▁br 7932
發現 7920
sh 7913
ist 7880
那些 7858
iv 7850
這樣 7848
色 7836
ug 7815
ng 7791
▁got 7786
co 7758
感 7756
期 7743
圖 7728
▁te 7721
ff 7715
▁talk 7715
▁lot 7708
名 7701
▁ca 7695
ig 7683
方 7679
本 7670
bi 7669
我們的 7642
▁let 7633
回 7601
▁say 7583
氣 7580
les 7579
▁thing 7566
▁有 7554
她 7545
放 7515
兩 7489
mp 7487
及 7451
沒 7450
▁little 7442
▁kind 7422
▁human 7419
自 7316
▁但是 7314
國 7278
車 7278
業 7267
世界 7258
一樣 7253
to 7247
ti 7245
頭 7241
跟 7240
ho 7233
現在 7225
2 7176
部 7164
▁car 7162
起 7160
內 7157
只 7156
ated 7145
意 7088
ut 7084
平 7071
利 7051
▁good 7018
▁different 7017
di 7015
▁through 7013
ni 7008
cu 6997
發生 6996
改變 6994
ok 6979
▁這些 6949
你們 6945
星 6945
明 6930
ous 6877
▁然後 6869
等 6857
▁why 6855
如 6843
▁did 6837
愛 6831
▁那 6828
ke 6823
見 6815
▁la 6794
新 6776
克 6770
and 6753
教 6740
常 6717
場 6712
ine 6710
論 6709
▁around 6689
▁use 6686
ct 6680
end 6665
道 6662
▁being 6654
美 6654
間 6637
no 6621
tu 6571
其他 6537
先 6520
▁show 6519
美國 6509
國家 6498
▁down 6494
▁da 6478
工 6473
拉 6472
視 6467
▁tell 6465
pi 6450
身 6433
的是 6423
確 6423
大家 6411
▁ta 6396
人們 6395
電 6389
研究 6386
民 6375
談 6369
三 6368
he 6357
看到 6351
真的 6343
▁她 6332
7 6294
4 6293
▁j 6286
▁pa 6284
▁現在 6274
處 6251
▁gr 6226
人類 6220
所有 6216
▁same 6208
▁g 6206
▁cha 6205
▁是 6191
再 6167
cy 6150
ful 6138
工作 6138
pt 6129
ia 6119
打 6119
▁si 6117
問 6085
▁不 6075
幾 6065
▁al 6057
爾 6031
帶 6028
▁comp 6020
▁em 6020
邊 6015
次 6009
光 6005
▁ch 6001
走 5988
使用 5987
十 5983
▁如果 5970
你的 5935
mi 5933
信 5932
聽 5921
▁change 5916
達 5916
▁day 5913
因為 5897
太 5872
▁ha 5863
▁put 5860
不會 5847
呢 5830
9 5815
bo 5800
認為 5799
必須 5793
▁lo 5790
ir 5785
ot 5761
os 5757
受 5741
現 5722
▁after 5720
▁這個 5701
ty 5700
▁big 5699
海 5691
轉 5690
能夠 5689
任何 5667
全 5660
文 5628
此 5627
保 5621
red 5614
▁fact 5611
▁find 5600
然 5599
▁system 5578
▁start 5575
金 5574
才 5558
▁try 5557
1 5555
j 5554
ite 5547
▁great 5524
-- 5520
▁inter 5517
很多 5516
▁thank 5495
▁three 5475
花 5474
ary 5471
線 5471
想要 5466
表 5464
這種 5446
▁help 5440
它們 5433
其 5427
原 5420
又 5405
設計 5400
兒 5395
許多 5393
▁k 5386
演 5386
fi 5368
one 5367
▁dr 5332
ag 5311
am 5311
vo 5310
ness 5305
ian 5298
▁today 5291
實 5285
▁mean 5280
▁own 5264
ta 5259
由 5250
port 5239
▁per 5237
ize 5236
▁fe 5225
ber 5212
▁called 5211
▁ne 5206
ual 5204
ition 5200
亞 5198
ors 5183
代 5174
ard 5172
情 5160
字 5158
ster 5129
都是 5123
使 5120
par 5113
▁ga 5112
▁sa 5109
▁wi 5109
▁doing 5108
一種 5105
提 5090
if 5076
流 5069
時間 5066
▁就 5062
件 5058
系統 5048
路 5037
▁percent 5028
無法 5027
類 5018
gen 5004
8 4998
的時候 4995
▁made 4986
交 4981
並 4979
收 4974
主 4958
形 4952
▁should 4945
rate 4941
馬 4941
群 4934
▁man 4924
▁give 4909
只是 4902
西 4900
bu 4894
四 4891
▁end 4884
應該 4880
器 4876
ab 4866
書 4862
變 4856
傳 4845
德 4842
知 4826
寫 4804
3 4802
▁real 4795
▁sc 4789
希望 4782
萬 4778
卻 4765
通 4761
und 4756
因 4754
白 4750
日 4745
▁high 4742
▁didn 4740
che 4738
五 4738
每 4735
難 4732
ture 4715
強 4702
6 4698
▁app 4696
接 4694
話 4692
wa 4678
ca 4660
▁before 4651
基 4649
樣 4630
則 4623
片 4619
員 4617
▁love 4612
led 4611
fin 4598
士 4598
ris 4594
▁20 4592
女 4590
ish 4589
cra 4584
▁off 4581
百 4578
▁brain 4573
nd 4572
指 4567
ha 4557
▁each 4552
▁him 4551
覺得 4541
觀 4535
得到 4534
em 4528
導 4528
▁fi 4527
ure 4524
權 4518
反 4514
步 4506
▁might 4504
▁當 4491
型 4490
▁tri 4485
們 4485
cent 4484
▁idea 4482
他們的 4482
▁came 4477
社會 4473
ible 4464
怎麼 4460
了解 4458
▁n 4450
▁year 4449
來說 4448
▁2 4431
ning 4424
▁understand 4422
就會 4419
▁important 4414
質 4401
mon 4397
▁never 4394
ap 4393
▁still 4386
人的 4384
▁trans 4380
▁mar 4374
管 4373
fl 4367
qui 4366
▁thought 4360
影響 4349
極 4343
▁another 4341
上的 4333
▁last 4330
這樣的 4328
的事 4327
條 4325
但 4322
深 4320
例 4315
ral 4314
▁better 4309
千 4306
中的 4302
ious 4300
% 4285
be 4278
pp 4275
ran 4275
ner 4265
▁act 4262
已 4259
應 4255
▁play 4253
▁fun 4252
ac 4250
ten 4238
▁started 4225
失 4224
▁live 4208
關 4206
真 4205
ger 4204
ities 4200
生物 4183
▁design 4180
the 4178
’ 4171
fa 4168
▁found 4168
程 4168
ight 4164
設 4164
師 4162
消 4143
▁ti 4140
ial 4135
成為 4134
con 4133
角 4133
其實 4131
制 4127
▁too 4123
病 4122
▁o 4120
▁如果你 4119
▁long 4116
創造 4111
ative 4110
▁19 4110
▁mu 4108
各 4103
一點 4097
▁000 4095
▁而且 4094
取 4093
▁together 4089
fo 4087
立 4083
不同 4081
完全 4075
案 4066
▁art 4061
tro 4056
剛 4056
專 4052
結 4041
歲 4040
der 4039
老 4039
▁water 4031
▁number 4028
自己的 4027
▁example 4023
別 4019
▁women 4016
張 4010
▁school 4005
gg 4003
品 4003
認 3999
act 3990
式 3990
▁point 3989
▁able 3986
va 3981
公司 3981
的問題 3981
ating 3972
之後 3971
算 3966
出來 3963
其中 3960
這裡 3959
▁story 3956
東西 3952
非 3946
ward 3942
少 3938
tain 3937
▁我的 3933
起來 3926
▁few 3925
▁我想 3924
奇 3923
▁gene 3921
各位 3919
組 3917
▁place 3912
格 3911
該 3904
吧 3903
pu 3901
▁problem 3898
chi 3897
快 3892
▁under 3891
▁call 3889
▁next 3881
▁hand 3880
遠 3878
▁feel 3873
有些 3859
▁♫ 3855
▁million 3853
▁bit 3847
tor 3840
態 3838
畫 3832
引 3831
相信 3829
記 3816
的東西 3815
▁does 3814
fe 3808
的方式 3806
▁home 3797
哪 3797
ism 3777
里 3763
log 3761
離 3757
單 3755
請 3751
害 3749
議 3746
近 3746
▁data 3740
▁may 3740
▁health 3730
▁grow 3729
孩子 3729
▁imp 3728
住 3724
hu 3723
▁between 3720
科技 3718
ip 3710
維 3703
那個 3696
結果 3694
▁again 3693
僅 3690
也是 3689
眼 3682
mer 3679
任 3674
球 3672
整 3668
這是 3668
uc 3667
拿 3665
費 3662
▁也 3660
如此 3658
腦 3644
▁went 3642
▁used 3641
press 3638
▁從 3638
解決 3633
告訴 3631
生活 3630
mit 3628
正在 3628
以及 3625
還是 3617
裝 3615
安 3614
黑 3611
- 3605
微 3604
只有 3603
更多 3594
網 3592
一下 3591
決定 3591
不能 3589
錢 3586
▁ask 3583
▁care 3579
pla 3578
集 3573
▁v 3569
想像 3567
創 3562
一直 3560
生命 3554
▁believe 3552
▁far 3550
▁become 3548
試 3547
▁develop 3544
他的 3543
是個 3535
層 3534
的地方 3531
空 3531
▁question 3523
過去 3515
▁ago 3507
▁second 3507
對於 3503
▁war 3502
總 3500
飛 3492
進行 3491
▁course 3485
▁gu 3484
▁plan 3483
解 3483
ving 3482
▁am 3482
還有 3481
不同的 3480
av 3478
直 3478
▁small 3477
20 3474
為了 3470
hy 3464
巴 3462
細胞 3461
置 3458
▁read 3452
▁technology 3452
▁謝謝 3451
足 3451
發展 3447
素 3443
▁na 3442
共 3442
像是 3436
錯 3425
報 3421
未來 3419
fer 3414
變成 3410
ase 3409
關於 3404
▁hard 3403
50 3399
喜歡 3399
便 3394
調 3394
▁maybe 3391
如果 3390
早 3390
地球 3389
ki 3381
▁el 3380
死 3379
節 3378
▁children 3373
命 3373
▁space 3370
活 3361
pl 3360
找到 3360
gi 3359
英 3357
做的 3351
▁old 3336
▁light 3335
謝 3335
▁le 3333
for 3327
▁因此 3322
▁就是 3320
是在 3319
▁10 3318
待 3318
10 3315
▁好 3312
選 3311
房 3309
率 3304
king 3303
▁對 3299
首 3299
二 3292
▁power 3291
好的 3291
存在 3288
▁person 3286
站 3284
▁hi 3283
▁tr 3282
建 3281
來自 3270
除 3267
故事 3265
產生 3264
▁doesn 3260
推 3260
照 3253
測 3245
▁four 3244
女性 3244
感覺 3244
電腦 3244
▁form 3243
ose 3241
同時 3238
越 3238
經濟 3236
第一 3231
▁less 3230
▁還有 3227
▁experience 3223
低 3223
ever 3222
玩 3212
選擇 3209
▁always 3204
止 3204
go 3200
即 3198
▁你們 3195
往 3192
man 3190
熱 3188
運 3183
方式 3180
今天 3177
存 3175
網路 3174
並不 3171
bl 3165
ib 3164
服 3159
聯 3155
密 3151
真正 3149
▁ever 3148
情況 3148
當時 3147
科學 3146
▁cap 3144
▁create 3141
新的 3140
覺 3140
per 3133
果 3127
狀 3126
經 3121
門 3121
▁並 3115
▁dec 3112
▁它們 3109
▁cur 3108
▁1 3107
假 3107
▁wanted 3105
一位 3100
舉 3100
技術 3091
部分 3091
神 3090
樂 3088
▁move 3082
城市 3079
簡單 3078
比較 3074
組織 3070
▁lead 3060
絕 3060
兩個 3059
ny 3058
求 3056
oc 3055
ator 3054
標 3054
稱 3053
看看 3048
差 3046
驚 3044
台 3036
區 3033
政府 3026
象 3026
火 3020
阿 3019
▁men 3015
朋友 3011
大腦 3007
落 3006
▁sw 3004
▁mis 3003
▁working 3002
重要的 3001
▁away 3000
── 2999
料 2999
讀 2995
▁creat 2989
▁looking 2986
卡 2984
ft 2981
計 2973
less 2972
細 2972
▁但我 2971
改 2970
▁sort 2969
億 2969
ists 2967
▁rep 2965
▁face 2962
ba 2959
傷 2959
▁set 2957
動物 2957
顯 2957
ring 2955
聲 2950
院 2949
致 2946
▁large 2945
這麼 2935
產 2933
羅 2933
能力 2927
且 2924
pa 2923
▁everything 2920
資料 2913
row 2911
wi 2911
是一個 2911
▁done 2910
半 2910
出現 2908
▁country 2901
▁means 2901
▁pi 2897
林 2895
號 2895
醫 2890
是我們 2888
超 2887
另一 2886
全球 2882
環境 2879
▁reason 2876
▁要 2874
ling 2871
▁sub 2868
口 2866
在這 2861
完 2861
是什麼 2859
▁whole 2854
連 2854
不知道 2853
健康 2850
▁while 2849
抗 2849
持 2849
布 2848
use 2846
過程 2846
提供 2844
之一 2832
一次 2831
▁times 2830
幫助 2830
是否 2820
▁open 2818
未 2816
▁future 2814
段 2812
▁red 2811
某 2811
月 2810
尼 2808
為什麼 2808
一起 2806
突 2804
19 2797
▁africa 2794
son 2790
▁met 2787
機會 2786
▁information 2785
牠們 2782
▁process 2780
▁enough 2774
▁social 2771
義 2771
que 2770
約 2767
棒 2758
spect 2755
▁building 2755
讓我 2754
▁moment 2753
ie 2752
一切 2752
效 2752
▁run 2745
▁mil 2743
造 2743
整個 2742
是因為 2742
查 2741
▁所以我 2740
思考 2739
性的 2737
吃 2735
ex 2731
▁win 2730
叫 2728
lar 2727
line 2726
關係 2725
望 2724
▁five 2723
擊 2723
▁job 2722
講 2721
排 2719
商 2718
form 2716
▁body 2715
影 2715
▁mind 2713
ton 2708
▁earth 2707
元 2707
身體 2707
▁without 2706
▁add 2705
▁case 2701
▁thinking 2700
▁best 2694
▁ju 2693
照片 2688
吸 2684
▁ja 2678
▁name 2677
有一個 2677
室 2668
ak 2664
互 2663
學習 2663
行為 2661
air 2659
之間 2659
▁kids 2658
包 2654
▁group 2648
▁walk 2647
思 2647
有人 2646
學生 2643
症 2643
▁left 2642
展 2642
資訊 2634
停 2633
造成 2633
▁food 2629
重要 2628
▁keep 2627
之前 2627
年前 2625
藝術 2624
找 2623
▁這就是 2622
個人 2622
列 2622
魚 2620
戰 2619
hi 2618
族 2617
份 2616
所有的 2616
每個 2610
▁cl 2607
獨 2607
眾 2605
地方 2604
▁research 2603
成功 2602
▁guy 2601
▁lives 2599
bra 2595
cho 2595
ron 2595
▁money 2595
證 2595
留 2591
ized 2589
時候 2589
例子 2585
殺 2578
世 2577
掉 2577
▁answer 2576
▁sign 2575
感到 2575
變得 2573
▁young 2568
ake 2565
基本 2561
▁sy 2560
波 2557
▁和 2550
ability 2549
石 2546
▁making 2545
透過 2545
探 2544
▁book 2542
▁head 2542
適 2542
甚至 2541
第二 2541
風 2539
▁imagine 2538
▁family 2532
getting 2530
▁sense 2528
▁teach 2527
座 2524
▁computer 2521
▁side 2520
的事情 2515
索 2513
語 2511
讓我們 2509
nu 2507
計畫 2507
val 2506
▁project 2506
▁city 2505
些 2501
數據 2501
精 2500
錄 2497
事實 2496
預 2492
lt 2491
六 2491
▁stand 2489
▁以及 2489
何 2488
· 2487
方法 2487
事情 2486
媽 2486
▁我們的 2482
▁free 2481
到了 2480
市 2477
目 2477
級 2475
ned 2467
▁connect 2467
州 2465
ang 2464
的故事 2458
▁一個 2457
擁有 2457
▁matter 2456
了一個 2455
規 2452
60 2449
基因 2449
▁energy 2448
久 2448
是我 2446
買 2445
蘭 2443
投 2442
▁以 2438
▁close 2435
▁200 2433
非洲 2433
▁bring 2430
景 2429
▁3 2426
▁planet 2426
富 2423
就像 2421
建築 2421
山 2417
聲音 2416
血 2416
▁build 2415
自然 2414
學家 2413
ps 2412
養 2412
▁hope 2410
▁讓 2410
題 2409
▁such 2399
▁science 2398
主義 2392
今 2392
教育 2390
的話 2390
納 2390
興 2390
染 2389
可能會 2385
誰 2385
▁seem 2384
送 2382
限 2382
客 2377
▁picture 2375
製造 2374
▁事實上 2372
或是 2372
▁sound 2371
安全 2370
▁across 2368
的工作 2365
▁share 2362
▁pass 2358
射 2358
▁basic 2357
ship 2354
▁remember 2354
▁room 2353
▁沒有 2352
威 2352
▁often 2351
幸 2350
激 2347
的時間 2347
▁both 2346
▁tu 2344
土 2344
▁allow 2341
▁global 2340
▁就像 2336
▁或 2334
團 2334
務 2333
fu 2331
▁當然 2331
律 2331
▁government 2330
異 2330
▁stop 2329
空間 2328
策 2325
告 2322
學校 2322
▁line 2321
普 2320
▁product 2318
音樂 2317
需 2316
資 2314
居 2312
rs 2311
息 2310
處理 2310
都有 2310
▁air 2308
夠 2306
建立 2305
食物 2304
▁week 2301
▁probably 2299
ped 2298
▁r 2295
▁once 2285
注 2282
滿 2280
穿 2278
底 2275
食 2272
然後 2271
曾 2267
伊 2266
最後 2263
善 2258
▁someone 2256
廣 2256
換 2253
▁pretty 2248
拍 2245
▁每 2243
▁child 2241
特別 2240
▁ob 2238
▁image 2236
運動 2236
▁makes 2235
斷 2234
▁fra 2231
塊 2229
所以 2225
系 2224
having 2221
合作 2220
破 2220
她們 2217
▁happened 2210
至 2210
隨 2209
目標 2208
文化 2206
刻 2204
▁sea 2203
晚 2202
▁du 2201
負 2201
▁else 2197
歷史 2196
▁pain 2195
12 2194
幫 2194
▁ways 2186
▁那是 2186
▁girl 2184
18 2183
▁community 2182
準 2182
▁control 2181
都會 2179
▁countries 2178
▁simple 2178
南 2176
背 2175
up 2173
▁effect 2173
助 2171
▁anything 2169
代表 2168
▁business 2167
▁learn 2167
免 2166
藥 2166
▁half 2165
▁且 2165
洲 2165
疾病 2163
▁50 2162
有關 2159
quite 2158
ular 2158
圍 2156
辦 2155
▁single 2152
才能 2152
▁land 2151
政治 2150
有個 2150
令人 2149
▁billion 2148
▁yet 2148
▁你可以 2148
將會 2144
音 2144
▁asked 2143
▁later 2143
就能 2143
只要 2142
▁mov 2139
驗 2139
▁public 2138
降 2138
注意 2137
並不是 2135
意思 2135
gue 2134
▁living 2134
護 2131
land 2129
▁age 2129
移 2128
童 2124
▁所以我們 2123
▁sure 2122
實驗 2122
超過 2122
治療 2121
笑 2120
▁30 2119
痛 2119
we 2118
▁interesting 2118
責 2118
界 2117
另一個 2115
80 2113
▁environment 2108
核 2108
歐 2107
看起來 2105
▁saw 2104
▁bad 2103
▁study 2101
清 2098
男 2098
述 2097
ze 2095
▁wonder 2091
爭 2090
複雜 2089
對我 2087
科 2085
▁complete 2081
醫生 2079
嚴 2076
▁turn 2075
幾乎 2075
米 2075
▁treat 2074
▁black 2072
《 2072
》 2072
影片 2071
軍 2071
社區 2069
在這裡 2068
控制 2068
源 2068
▁coming 2067
] 2063
下來 2061
大約 2060
神經 2060
▁當我 2059
▁instead 2057
意識 2057
▁model 2056
利用 2056
項 2056
▁happen 2055
方面 2055
終 2055
▁seen 2054
分享 2054
way 2053
夫 2051
▁almost 2045
▁top 2045
一天 2045
年輕 2045
▁disease 2042
相當 2042
▁lab 2041
▁hear 2039
▁music 2038
▁test 2038
▁cells 2037
古 2036
▁yes 2035
▁deep 2033
io 2030
目前 2030
istic 2029
▁already 2026
詞 2026
家庭 2021
進入 2021
30 2020
▁days 2020
依 2020
▁thousand 2019
▁rest 2018
具 2016
的世界 2016
統 2014
▁heart 2012
lock 2011
攝 2009
活動 2007
回到 2006
▁possible 2005
▁machine 2004
▁patient 2002
▁或是 2001
壞 1999
史 1998
▁states 1995
做出 1995
樹 1995
容易 1994
靠 1994
▁為什麼 1993
念 1993
接受 1993
術 1993
▁level 1991
▁nothing 1991
溫 1987
▁house 1986
cal 1985
▁game 1985
短 1984
較 1984
候 1983
▁history 1982
▁whether 1979
▁u 1978
▁watch 1978
營 1976
▁inside 1973
▁leg 1970
皮 1970
一定 1968
▁dollars 1967
反應 1967
▁sometimes 1966
採 1964
通常 1964
言 1961
個月 1960
答案 1959
▁happens 1957
▁myself 1949
▁har 1948
做了 1948
▁speak 1947
靈 1947
day 1946
▁ok 1946
▁如果我們 1943
支 1942
百萬 1940
考 1940
保護 1939
參與 1939
她的 1939
復 1939
更好 1938
▁six 1937
多少 1937
▁problems 1935
▁within 1935
不要 1925
觸 1923
製 1922
▁我們可以 1921
▁mother 1919
小時 1918
▁我在 1917
▁language 1916
▁low 1916
臨 1916
有點 1915
ga 1914
油 1914
▁div 1913
▁piece 1910
▁since 1909
世界上 1909
意義 1909
大學 1908
巨 1907
遇 1907
犯 1906
旅 1904
慢 1903
政 1903
哈 1902
人生 1901
語言 1900
價值 1898
農 1897
▁我認為 1896
do 1891
世紀 1891
端 1890
衛 1889
救 1888
菌 1888
▁law 1886
▁order 1886
▁而是 1884
劇 1884
▁那麼 1883
完成 1882
親 1882
▁discover 1881
成長 1880
▁words 1879
件事 1879
大部分 1879
▁until 1878
構 1878
承 1876
▁接著 1875
播 1874
▁program 1872
▁stuff 1872
▁再 1872
宇宙 1871
工具 1871
警 1871
領 1870
隊 1867
▁figure 1865
▁stories 1865
怕 1864
▁particular 1862
想法 1862
十年 1861
的方法 1860
ach 1859
▁organ 1859
在一起 1859
不到 1858
▁certain 1857
各種 1856
苦 1855
▁says 1853
... 1852
官 1852
▁state 1851
▁這種 1851
很好 1851
升 1847
追 1847
▁class 1846
▁self 1843
▁wrong 1840
怪 1840
盡 1837
▁goes 1834
▁prop 1834
課 1834
舞 1833
挑戰 1831
監 1827
哥 1825
科學家 1824
益 1823
自由 1822
70 1820
▁night 1818
材 1816
機器人 1814
的想法 1814
▁wasn 1813
▁american 1812
▁[ 1811
▁entire 1811
繼續 1811
▁robot 1805
▁everyone 1803
狀況 1803
▁isn 1802
實際上 1801
▁true 1800
做到 1800
中心 1798
▁result 1797
死亡 1793
light 1791
社 1791
也會 1790
重新 1789
切 1786
森 1784
看到的 1784
▁video 1781
▁hundred 1778
▁step 1778
▁讓我們 1777
聽到 1776
▁saying 1774
屬 1773
▁team 1772
united 1771
▁fast 1769
▁must 1769
每天 1769
▁months 1767
紅 1767
努力 1766
印 1765
▁full 1762
模式 1762
仍然 1761
尋 1761
速 1760
▁though 1759
力量 1758
小孩 1758
用來 1758
解釋 1757
▁woman 1751
把它 1751
叫做 1750
這件事 1749
那麼 1749
劃 1748
勢 1747
派 1747
▁past 1745
必 1745
機器 1745
▁challenge 1744
就可以 1744
▁你會 1743
中國 1743
持續 1743
模 1743
▁cost 1742
嘗試 1742
裏 1741
包括 1740
▁issue 1737
而言 1737
修 1736
會有 1736
太陽 1734
患 1734
經歷 1734
讓你 1734
遊戲 1734
易 1733
行動 1733
▁exist 1732
▁cancer 1731
▁knew 1730
ets 1729
▁meet 1729
階 1727
看見 1725
八 1724
理解 1724
際 1722
▁ideas 1720
概念 1720
▁individual 1719
值 1719
▁market 1718
bb 1717
▁amazing 1716
價 1714
北 1711
試著 1710
11 1709
▁kill 1709
連結 1709
▁star 1708
付 1708
冰 1707
帶來 1707
範 1706
▁force 1703
身上 1700
▁我要 1699
倍 1699
不斷 1697
優 1697
可以看到 1697
▁became 1695
▁invest 1695
革 1695
境 1692
別人 1691
▁micro 1690
板 1689
▁100 1687
▁不過 1687
▁我是 1687
▁最後 1686
mbi 1685
左 1683
歌 1683
河 1683
經驗 1682
防 1682
▁education 1680
▁或者 1680
配 1680
職 1676
園 1675
含 1674
▁against 1672
▁term 1670
我想 1670
▁value 1667
在那 1667
的生活 1667
雙 1666
▁比如 1665
增加 1665
運作 1665
面對 1664
頓 1663
▁pay 1662
檢 1661
ping 1660
顯示 1660
病人 1659
▁friends 1657
▁learned 1657
街 1656
電影 1656
▁everybody 1655
週 1655
作品 1653
鏡 1653
▁beautiful 1651
和我 1650
跑 1649
當中 1647
▁train 1646
環 1645
積 1645
▁follow 1644
啊 1644
七 1643
200 1642
▁cause 1642
牠 1640
或許 1637
印度 1636
疑 1634
▁collect 1633
▁oh 1631
句 1631
90 1630
以前 1629
倫 1629
衝 1629
grad 1628
▁leave 1628
協助 1628
受到 1626
賽 1626
女孩 1625
紙 1625
通過 1625
蓋 1624
夢 1623
清楚 1623
▁heard 1622
▁當你 1622
▁甚至 1621
智慧 1619
記得 1619
觀察 1614
van 1609
部份 1607
▁也許 1606
蟲 1605
人口 1604
taking 1601
▁drug 1601
▁exactly 1597
out 1596
▁但我們 1596
麗 1595
▁students 1594
▁super 1593
▁clear 1591
ology 1589
▁mass 1589
▁color 1588
▁object 1588
▁personal 1588
參 1588
▁support 1587
準備 1587
▁engine 1586
ological 1584
唯一 1584
初 1583
▁society 1582
事物 1582
分鐘 1582
描 1582
▁也就是 1581
也有 1581
第一個 1579
緊 1579
▁drive 1578
架 1578
隻 1578
▁sun 1577
真實 1577
▁difference 1576
接下來 1576
略 1576
容 1575
周 1574
▁safe 1573
▁themselves 1572
曲 1572
針 1572
年代 1571
幾個 1570
敗 1570
▁questions 1569
右 1569
▁company 1568
結構 1568
▁ocean 1567
▁couple 1566
▁risk 1565
餐 1565
han 1564
臉 1564
▁natural 1563
during 1562
▁god 1562
奮 1561
辦法 1561
漸 1560
資源 1560
彈 1559
貧 1558
not 1556
▁cell 1556
備 1556
跳 1556
主要 1555
支持 1555
▁view 1554
華 1553
▁listen 1552
▁produce 1551
一般 1550
也不 1549
▁protect 1548
船 1548
評 1548
▁decided 1547
缺 1545
▁built 1544
▁然而 1544
怎樣 1544
海洋 1542
▁front 1541
據 1541
▁material 1540
母 1540
館 1540
習 1539
▁along 1538
▁hold 1538
肯 1537
總是 1536
顧 1535
感受 1531
某些 1531
的孩子 1531
based 1530
那裡 1529
領域 1528
博 1525
藥物 1525
▁focus 1524
▁je 1523
▁讓我 1523
恐 1523
沙 1522
產品 1519
▁yea 1518
木 1518
▁fish 1516
▁common 1515
▁culture 1515
治 1513
訊息 1513
▁當我們 1512
窮 1511
離開 1509
而且 1508
自我 1508
根 1507
▁middle 1506
▁ourselves 1506
▁word 1506
罪 1505
腳 1505
討論 1504
寶 1503
數字 1503
▁feeling 1502
▁我會 1501
有很多 1501
▁nature 1498
大概 1498
有趣的 1497
介 1495
如果你 1493
▁india 1492
▁phone 1491
▁species 1491
演講 1491
迷 1491
▁short 1490
塔 1490
▁experiment 1489
同樣的 1489
太空 1489
讓人 1489
根本 1488
那樣 1488
生產 1487
呼 1485
想到 1485
父母 1485
▁america 1484
全世界 1484
都在 1483
▁places 1481
▁deal 1479
▁solution 1479
▁spend 1479
▁break 1478
的研究 1477
▁universe 1476
女人 1474
糟 1474
程式 1473
在那裡 1472
▁death 1469
ization 1467
▁write 1467
示 1467
▁type 1466
▁並且 1464
輸 1463
電話 1459
▁san 1458
並沒有 1458
作為 1458
▁difficult 1456
▁arm 1453
▁south 1453
市場 1452
放在 1452
lan 1451
▁hours 1451
簡 1449
▁somebody 1444
病毒 1444
▁wait 1442
亮 1440
曾經 1440
分子 1439
醫療 1439
原因 1438
▁fail 1437
仍 1437
▁couldn 1436
▁rather 1436
控 1436
▁於是 1435
▁bar 1434
骨 1434
▁因為我 1433
♪ 1433
每一個 1432
看著 1432
▁雖然 1431
潛 1431
聚 1430
喜 1429
孩 1429
版 1429
諾 1429
這項 1428
▁若 1427
移動 1427
▁40 1426
彼此 1426
▁eat 1425
▁emotion 1424
▁para 1424
企業 1424
▁white 1423
頂 1423
惡 1422
避 1422
▁early 1421
▁huge 1420
聖 1420
裡面 1420
軟 1420
▁learning 1419
▁center 1418
一張 1417
執 1416
▁street 1414
取得 1414
輕 1413
▁turns 1411
蛋 1411
地區 1410
▁doctor 1409
▁happening 1409
智 1409
艾 1409
是一種 1408
▁behavior 1407
▁economic 1405
▁itself 1405
▁reach 1405
▁而我 1404
不再 1404
塑 1403
▁fear 1402
服務 1402
物質 1402
碼 1401
第一次 1401
媒體 1400
▁internet 1399
▁complex 1398
▁expect 1398
福 1396
建造 1394
住在 1393
▁circ 1392
決 1392
▁animals 1391
▁blood 1391
14 1390
▁die 1390
一項 1390
▁third 1389
麻 1388
▁near 1386
典 1386
▁worked 1385
施 1385
永遠 1385
▁felt 1384
▁你知道 1384
▁relationship 1381
團隊 1381
有效 1380
碳 1378
困難 1377
相關 1377
▁population 1375
懷 1375
肉 1375
▁即使 1374
這個問題 1374
▁voice 1373
散 1373
壓 1371
▁finally 1368
投資 1368
▁green 1367
局 1366
班 1366
▁parents 1365
嗯 1365
我們可以 1365
程度 1365
讓他們 1365
▁local 1364
時代 1364
礎 1363
東 1361
▁created 1360
▁cut 1360
15 1359
退 1359
願 1359
直接 1358
偏 1357
理論 1355
知識 1355
▁dream 1354
美元 1354
毒 1353
技 1351
▁companies 1350
♫♫ 1350
疫 1350
速度 1349
睡 1348
uck 1344
▁access 1344
▁choice 1344
▁least 1344
▁structure 1344
是由 1344
很重要 1342
戰爭 1342
紀 1341
手機 1340
洛 1340
票 1340
紐約 1340
▁won 1339
▁15 1338
▁gre 1338
來看 1338
困 1338
最近 1338
銀 1338
一年 1337
▁outside 1336
戶 1336
▁oka 1335
▁rule 1335
洞 1335
▁decision 1334
坦 1334
▁record 1333
類似 1333
暗 1332
▁reality 1331
慮 1331
40 1330
二十 1328
其他人 1327
奧 1326
察 1326
順 1326
的原因 1325
▁friend 1322
青 1322
藏 1321
遺 1321
不只是 1319
▁climate 1318
▁bio 1317
▁political 1317
區域 1317
雷 1317
伯 1316
味 1316
▁present 1314
爲 1314
一段 1313
續 1313
▁vari 1312
混 1312
序 1310
開發 1309
▁began 1308
▁count 1308
甚麼 1308
▁impact 1307
稱為 1307
表現 1306
坐 1305
不可能 1303
衣 1302
▁network 1301
最終 1301
▁amount 1300
▁yourself 1300
母親 1300
16 1299
▁fight 1299
▁poor 1299
變化 1298
▁media 1296
有多 1296
給我 1296
九 1294
訊 1294
目的 1293
▁fall 1292
有可能 1292
▁needed 1291
什麽 1291
▁behind 1290
▁easy 1290
▁pick 1290
▁stay 1290
傳統 1290
編 1290
脫 1290
— 1289
爸 1289
▁main 1288
▁field 1285
▁manage 1285
暴 1285
興趣 1285
領導 1285
▁perfect 1284
確實 1284
距 1283
製作 1282
迫 1282
▁boy 1281
液 1281
複 1280
▁given 1279
瑞 1279
▁eyes 1278
增 1278
謂 1278
lam 1277
▁perhaps 1277
汽 1277
▁minutes 1275
或者 1275
藉 1275
▁physical 1273
另外 1273
▁measure 1272
賣 1272
禮 1271
▁cities 1270
認識 1269
三個 1267
▁buy 1266
▁powerful 1266
能源 1266
▁known 1265
第三 1265
英國 1265
棄 1264
▁father 1262
關鍵 1262
男人 1261
氧 1260
time 1258
▁movement 1258
▁scientists 1258
鼓 1258
▁shape 1257
▁他說 1255
能量 1254
表示 1253
刺 1252
▁key 1251
那種 1251
弱 1250
心理 1250
令 1249
形成 1249
▁tree 1248
▁gave 1247
▁consider 1246
▁wall 1246
擴 1244
▁seven 1242
▁york 1242
作用 1242
失去 1242
但是 1241
現實 1241
醒 1241
▁century 1240
▁scale 1240
伴 1240
障 1240
隱 1240
告訴我 1237
均 1237
現今 1237
當然 1237
▁generation 1236
越來越 1235
▁perform 1234
實驗室 1234
▁longer 1233
▁在我 1233
你可以 1233
發明 1232
▁simply 1231
情緒 1230
絲 1229
診 1228
▁sent 1227
功能 1227
冷 1226
某種 1226
▁organization 1225
管理 1225
許 1225
阻 1225
▁paper 1224
也可以 1224
析 1224
▁conversation 1223
捕 1223
事件 1220
展示 1219
很難 1219
▁fly 1218
▁interact 1216
▁neuro 1216
暴力 1216
數學 1215
▁north 1214
說明 1214
這麼做 1214
▁slow 1213
植物 1213
私 1212
▁我們需要 1211
有什麼 1211
▁changed 1210
▁major 1210
▁我知道 1210
至少 1210
內容 1208
減少 1208
套 1205
臟 1205
勵 1203
證明 1203
機構 1202
當地 1202
google 1201
▁normal 1201
抱 1200
藍 1200
▁strong 1199
宗 1199
尋找 1199
想想 1199
第 1199
一隻 1198
掌 1198
根據 1198
現象 1198
筆 1198
▁realized 1197
▁national 1196
預測 1196
提出 1195
牛 1195
訪 1195
巧 1194
▁explain 1193
▁save 1193
融 1193
懂 1192
財 1192
▁size 1191
啟 1191
結束 1191
要求 1191
精神 1189
訓練 1189
▁map 1188
▁但這 1188
獲得 1188
print 1187
▁europe 1187
亂 1186
充滿 1186
共同 1186
危 1186
壓力 1186
祖 1185
▁china 1184
趣 1183
得要 1182
賴 1182
學到 1180
島 1180
▁taken 1179
縮 1179
酒 1178
到底 1176
綠 1176
野 1176
牙 1175
判 1174
▁fire 1173
▁solve 1173
減 1173
▁increase 1172
▁eight 1171
測試 1171
▁send 1170
▁approach 1169
▁begin 1167
▁represent 1167
協 1167
竟 1167
育 1167
▁office 1166
徵 1166
最大的 1166
識 1166
▁surface 1165
▁turned 1165
倒 1165
並非 1164
還要 1164
電子 1163
佈 1162
忘 1162
覆 1162
貝 1162
遍 1161
▁travel 1160
似乎 1159
新聞 1159
13 1158
風險 1158
尺 1157
燃 1157
▁continue 1154
麥 1154
佛 1153
床 1153
快樂 1151
上面 1150
否 1150
▁blue 1149
▁dark 1149
也許 1149
▁attention 1148
達到 1146
燈 1145
創新 1144
姆 1144
獎 1144
擔 1143
▁either 1142
▁kid 1142
老師 1142
熟 1141
觀眾 1141
意味著 1140
▁special 1139
▁那就是 1139
▁lost 1138
民主 1138
▁pattern 1137
▁happy 1136
圈 1135
應用 1134
估 1133
呈 1133
險 1133
...... 1132
規模 1132
▁draw 1131
▁因為我們 1131
▁device 1130
章 1130
願意 1130
▁condition 1129
快速 1129
實際 1128
狂 1128
靜 1128
回答 1127
永 1126
▁chris 1123
▁ground 1123
予 1123
隨著 1123
▁service 1122
本身 1122
零 1122
模型 1121
▁provide 1120
婚 1120
瞭解 1120
▁hit 1118
十分 1118
競 1118
▁audience 1117
危險 1117
父親 1117
良 1117
草 1117
癌症 1116
▁obvious 1115
▁film 1113
以為 1110
錯誤 1110
找出 1109
化學 1108
izing 1107
▁similar 1107
始 1107
時刻 1107
旁 1106
男性 1106
side 1105
人員 1105
延 1104
這一 1104
供 1103
友 1103
詩 1103
記憶 1101
▁medical 1100
店 1100
坐在 1099
▁born 1097
▁quickly 1097
每個人都 1097
衡 1096
雄 1096
▁absolute 1095
▁potential 1094
▁beginning 1092
▁對吧 1092
具有 1091
恐懼 1091
議題 1091
經過 1090
運用 1089
毛 1088
擔心 1087
村 1087
大多數 1085
浪 1085
當你 1083
計算 1083
遭 1083
擬 1082
告訴你 1079
曼 1077
堂 1076
聰 1074
隔 1072
儘 1071
同樣 1069
廠 1069
堅 1064
膠 1063
傾 1061
樓 1059
登 1057
舊 1057
釋 1053
秒 1052
爆 1051
夜 1048
似 1047
悲 1047
秘 1047
▁sl 1046
雜 1046
猩 1045
幕 1042
宣 1040
損 1037
透 1036
享 1033
唱 1033
婦 1033
猜 1032
若 1029
萊 1026
款 1024
符 1022
畢 1021
固 1020
妳 1020
翻 1017
默 1017
帝 1015
王 1015
希 1014
袋 1012
陸 1012
偉 1011
溝 1011
輪 1011
粒 1009
魯 1009
妙 1007
附 1007
睛 1005
歸 1003
漫 1003
焦 1002
乾 1000
獄 1000
烈 997
瘋 994
糖 994
遷 994
貴 993
顏 992
遊 991
堆 990
牌 989
/ 988
牆 984
幻 983
碰 983
迪 980
顆 980
乎 978
塞 978
攻 975
滅 975
充 974
鳥 974
繞 973
急 969
毀 966
尤 964
按 964
瓦 961
礙 961
薩 960
閉 960
旦 959
鐵 957
討 954
吉 953
冒 952
炸 951
揮 950
替 950
酷 949
虛 947
拜 943
恩 942
愈 940
勝 938
禁 937
植 935
瑪 935
穩 933
獻 930
露 930
究 929
守 926
勞 924
游 924
屋 923
q 918
操 918
額 918
武 917
忙 914
震 908
封 907
劑 903
授 903
奏 902
貨 902
補 900
耳 899
培 898
逐 897
聊 896
裂 896
雨 896
狗 894
蒙 892
逃 892
殘 891
途 890
銷 890
黃 889
龍 888
頻 887
閱 886
憂 883
乳 881
跨 881
脅 880
贏 880
辨 879
毫 877
儀 873
循 873
繁 873
載 871
魔 868
佳 867
幅 867
仰 865
蒂 863
沉 862
慣 861
侵 858
勒 858
庫 857
省 856
奈 855
廳 855
輯 853
休 852
鼠 852
螢 847
喔 846
丁 845
尊 844
摩 843
蜂 843
鄰 842
絡 841
槍 840
搞 838
既 838
援 837
嬰 836
膚 836
怖 834
蘇 834
雅 833
幹 831
獲 828
誌 828
碎 826
滋 825
戴 822
粉 822
練 822
耗 822
丹 821
剩 821
麼 821
殖 820
勇 812
抵 812
撞 812
泡 812
箱 811
丟 808
訝 808
城 806
盤 805
托 803
抽 802
圓 801
徑 798
傑 796
貼 795
抓 794
災 794
司 791
伸 790
香 790
洗 789
搜 788
滑 787
篇 786
忽 784
擺 783
弄 782
航 782
邀 782
弟 781
浮 781
糕 780
廢 778
股 778
莉 778
歡 775
鄉 775
癌 773
肌 772
握 770
凡 768
娜 766
拒 764
旋 764
朗 764
誤 764
尾 763
榮 762
蹤 762
繪 756
烏 753
硬 753
』 752
佔 750
尚 750
緣 748
『 746
髮 745
購 744
頁 742
桌 741
扮 740
洋 740
擾 739
燒 739
黨 739
葉 737
敢 735
稍 735
池 734
跡 733
驅 731
偶 730
荷 728
駕 728
審 727
朝 727
盛 727
促 726
怒 725
搭 724
‧ 723
戀 722
純 721
折 720
茲 720
污 718
批 717
寄 715
岸 715
喝 714
陷 714
緩 713
賺 712
孤 711
陰 711
夏 709
答 709
苗 709
迎 709
繫 707
舒 706
健 705
鬱 705
彩 704
漂 703
療 701
谷 701
志 699
遞 699
儲 698
雲 698
雪 694
鬥 690
末 689
脈 689
獵 688
埃 687
妹 687
兵 686
伙 685
般 685
乏 684
乘 683
橋 683
研 683
肥 682
歷 680
墨 678
掃 678
珍 677
煩 675
爬 674
駛 674
您 670
珊 670
莎 670
淨 668
仔 667
售 666
雖 664
飲 659
厭 658
, 655
肢 653
椅 652
軌 652
誠 650
尖 649
疾 649
拯 648
戲 646
腫 646
孕 644
校 643
莫 640
邦 639
暫 638
訴 637
辯 637
暖 636
耶 635
瘤 634
兄 633
餘 633
咖 632
眠 632
郵 632
響 632
酸 631
齡 628
殊 626
磁 626
寬 624
袖 624
鐘 621
喬 620
蟻 620
鬆 619
菜 618
振 617
干 615
仿 611
踏 611
傢 610
宜 610
腿 610
紹 607
功 606
徒 606
惑 606
故 606
俄 605
啡 605
偷 599
午 599
胎 599
• 597
帳 596
憤 593
凱 591
捐 591
輛 591
啦 590
歧 590
窗 589
喪 586
譜 586
搬 585
甲 585
械 584
汗 578
潮 578
刑 577
垃 577
壁 577
悉 576
涉 576
圾 575
聞 572
脆 572
秀 571
貓 568
偵 566
豐 565
盟 564
累 564
貢 564
辛 563
誕 562
敏 561
鞋 561
嚇 560
壯 559
遜 559
幼 558
搖 557
臂 557
蚊 557
陽 555
串 554
壽 554
蜜 554
陣 554
席 551
徹 546
疊 546
慈 545
賞 545
鎮 545
拼 544
荒 543
奶 540
盒 540
肺 540
哲 538
瑚 538
譯 538
閃 535
奴 534
帕 534
泰 534
琴 532
麽 532
覽 531
é 530
趨 530
招 529
擁 528
朵 528
漠 528
季 527
孔 525
躍 525
瓶 524
貌 523
膜 522
菲 522
兆 521
雞 521
敵 520
麵 520
夥 519
恢 519
嘴 517
晶 517
敦 516
遙 516
亦 515
幣 515
訂 515
副 512
柏 511
薪 511
穆 509
諸 508
渴 503
湯 503
猶 503
翰 503
姐 501
忍 501
奪 498
艱 496
妻 495
賦 495
允 494
堡 494
礦 494
雕 494
腐 493
龐 493
敘 492
杯 490
檔 490
峰 489
鮮 488
喻 485
羊 483
鋼 483
騙 483
黎 482
哩 481
迴 480
恆 476
裔 474
邁 470
挺 469
衰 469
父 468
鎖 468
裁 467
恨 466
挑 465
詢 465
鏈 465
昆 464
灰 464
煙 464
趕 462
陌 462
讚 461
岩 460
哭 456
沿 456
耐 456
橫 455
噴 453
春 453
署 453
映 450
尿 449
悅 449
恰 446
膽 446
– 445
拖 445
泛 445
玻 445
昂 444
漢 440
謀 440
敬 439
借 438
泥 438
稅 438
督 437
邏 436
~ 435
菸 434
飯 434
鯨 434
氏 432
庭 431
廚 431
羞 431
漁 430
束 428
側 427
填 427
軸 427
撒 425
癒 425
販 425
鯊 425
噢 424
瘧 424
箭 423
摧 421
委 420
磨 420
謊 420
妮 419
梯 419
祝 418
罰 418
截 417
企 415
割 415
棟 415
抑 413
田 412
擠 411
黏 411
扎 410
潔 410
纖 410
皆 408
伍 407
挖 407
着 406
牢 405
脂 405
杉 404
腺 404
駭 404
宮 402
申 401
隸 401
捉 399
紋 398
誘 398
揭 397
芬 397
擅 396
欣 396
騎 396
牧 395
刊 393
慶 393
漏 390
弗 389
插 389
餓 389
$ 388
扭 388
歉 388
澳 388
康 387
藝 386
賓 386
& 385
罕 385
腸 385
嘿 384
擋 383
蘋 383
猴 379
驟 378
泳 377
盲 377
績 377
壤 375
央 375
柯 375
簽 375
胸 375
蠻 375
贊 374
齒 374
埋 373
熊 373
臘 372
遵 372
刀 371
蠢 371
輩 371
饋 370
訓 369
募 368
拆 368
謎 368
哇 367
措 366
框 366
沃 366
璃 366
欺 365
糊 365
鼻 365
卵 364
厚 364
掘 364
籍 364
飾 364
凝 363
冠 361
旗 361
傲 360
晨 360
織 360
聆 360
脊 360
臺 360
違 360
霍 360
刷 359
癮 359
襲 359
魂 358
胖 357
薄 356
盧 355
紐 355
肩 354
瞬 353
哦 352
掛 350
鬼 350
“ 349
渡 349
瑟 348
穴 348
厲 347
涵 347
甜 346
綁 346
摺 345
滾 345
慘 344
鍵 344
嘛 343
枝 343
梅 343
鴉 342
擎 341
柱 341
況 340
蹟 340
鑽 340
揚 338
涯 337
陳 337
疼 336
萄 336
葡 336
陪 335
餵 335
濃 334
吹 333
掙 332
甘 332
侶 331
矛 331
返 331
噸 330
貸 330
縫 329
鹽 329
匹 327
殼 327
愉 324
鵝 324
摸 323
俱 322
拋 322
遲 322
桶 321
崩 320
虐 319
赫 319
塗 318
灣 318
盾 318
豬 318
韓 318
垂 317
諷 317
辱 317
迅 317
” 316
醉 316
貿 315
囚 314
屍 314
沮 314
滴 314
凌 313
孫 312
躲 312
域 311
豪 311
彎 310
牽 310
磯 310
廉 309
粹 309
莊 309
稀 308
濾 307
膀 307
撐 306
煤 306
哺 305
姻 305
貪 305
擦 304
丈 303
寧 303
湖 303
紫 303
爐 301
櫃 300
濫 300
炎 299
獅 299
縱 299
飽 299
叔 298
胡 298
餅 298
捲 297
亡 296
昨 296
呎 295
寓 295
磅 295
粗 295
蛛 295
隆 295
屠 294
礁 294
託 293
賈 293
仇 292
叛 292
斥 292
雌 292
籤 291
艘 291
飢 291
剪 290
寸 290
棲 290
獸 290
后 289
氫 288
塵 287
逆 287
藻 285
輔 285
爛 284
剖 282
彙 282
川 281
牲 281
皇 281
欲 280
剝 279
灌 279
勃 278
婆 278
役 278
灘 278
伐 277
咱 277
桑 277
淡 277
躺 277
杜 276
松 276
耀 276
芝 276
妥 275
螞 275
京 274
佩 274
喊 274
愚 274
棋 274
輻 274
債 273
喚 273
坡 273
凍 272
攜 272
姿 271
慾 271
慰 270
柔 270
汙 270
茶 270
詳 270
俗 269
怎 269
戒 269
籌 269
趟 269
媒 268
盪 268
匯 267
帽 267
弦 267
顛 267
廁 266
繩 266
贈 266
禱 265
蹈 265
鈕 265
占 264
─ 263
僱 263
冬 263
螺 263
蠅 263
酵 263
驕 263
搶 262
腎 262
葛 262
髓 262
催 261
冊 261
翼 261
憐 260
澤 260
呀 259
噪 259
糧 259
説 259
悟 258
肝 258
址 257
娛 257
惠 257
惱 257
欄 257
潤 257
甚 257
蜘 257
辭 257
齊 256
仁 255
棵 255
港 253
罐 253
脹 253
赤 253
巢 252
桿 252
盜 252
褲 252
賭 252
虎 251
誇 251
[ 250
耍 250
准 249
姊 249
懸 249
珠 249
惜 248
廊 247
李 247
醜 247
汀 246
註 246
雇 244
呆 243
竭 243
胞 243
衍 243
宿 242
蒸 242
悶 241
憑 241
淚 241
濕 241
孟 240
挫 240
曉 240
琳 240
逮 240
叢 239
忠 239
猛 239
踐 239
偽 238
矽 238
伏 237
墓 237
腹 237
譬 237
逝 237
霧 237
怨 235
丘 234
幽 234
憶 234
斑 234
詹 233
豚 233
奔 232
拓 232
棉 232
譽 232
須 232
併 231
恥 231
鷹 231
拔 230
肪 230
煮 229
瀏 228
笨 227
肅 227
葬 227
邪 227
魅 227
勁 226
掠 226
罩 226
蝠 226
閒 226
契 225
攀 225
湧 225
繼 225
醬 225
兼 224
奉 224
瓜 224
蝦 224
豆 224
跌 224
郊 224
犧 223
畏 222
睹 222
盯 221
稿 221
蛇 221
倡 220
堪 220
痕 220
禍 219
叉 218
租 218
蓄 218
胃 217
崇 216
裕 216
謹 216
霸 216
憲 215
腔 215
騷 215
髒 215
砍 214
綜 214
劣 213
彼 213
懲 213
鹼 213
召 212
吞 212
嘆 212
斜 212
削 211
吐 211
漆 211
烤 211
醇 211
倖 210
捷 210
溯 210
狼 210
吻 209
塢 209
寒 209
彷 209
蝙 209
勤 208
夾 208
玉 208
翅 208
遮 208
蕾 207
囊 206
疲 206
闆 206
唐 205
懶 205
戈 205
骼 205
宏 204
彿 204
掩 204
胺 203
膨 203
兇 202
概 202
狹 202
罹 202
撥 201
浸 201
鳴 201
⋯ 200
卓 200
逼 200
屏 199
番 199
耕 199
臭 199
浴 198
癱 198
吵 197
唸 197
擇 196
樑 196
廷 195
暢 195
烹 195
井 194
敲 194
晰 194
爺 194
糞 194
酬 193
姓 191
庇 191
扯 191
淋 191
囉 190
屈 190
詮 190
宅 189
拘 189
淺 188
籃 188
罷 188
艇 188
亨 187
挪 187
竊 187
膝 187
鋪 187
嗨 186
瘓 186
磚 186
篩 186
紛 186
尬 185
悔 185
慌 185
湊 185
禦 185
筒 185
咬 184
尷 184
沖 184
鑰 184
于 183
巡 183
斤 183
舌 183
什 182
扇 182
祈 182
蘿 182
闊 182
扣 181
謙 181
征 180
爵 180
裸 180
# 179
摔 179
豹 179
娃 178
謬 178
丸 177
匿 177
泉 177
貫 177
銅 177
騰 177
棕 176
汁 176
潰 176
棘 175
痺 175
矩 175
芭 175
蒐 175
+ 174
傘 174
坑 174
披 174
撈 174
旱 174
瞧 174
衷 174
鉛 174
撼 173
沈 173
内 172
匙 172
另 172
寂 172
添 172
艙 172
嗅 171
昏 171
疏 171
祕 171
頸 171
毯 170
炭 170
煉 170
綿 170
肚 170
劍 169
慎 169
椎 169
津 169
踢 169
卑 168
梭 168
盆 168
薯 168
詐 168
諧 168
忌 167
扔 167
茄 167
鈴 167
巫 166
歇 166
犬 166
蔬 166
諮 166
龜 166
们 165
巾 165
懼 165
撰 165
碑 165
胰 165
鬧 165
洩 164
狄 164
瞄 164
蝕 164
陶 164
卷 163
坊 163
溶 163
欠 162
禿 162
嘉 161
羽 161
韌 161
墊 160
淹 160
碟 160
銳 160
飄 160
抬 159
倉 158
宰 158
橘 158
纏 156
兔 155
啤 155
榜 155
碗 155
踩 155
壇 154
慨 154
滲 154
峽 152
薦 152
这 152
頌 152
噬 151
窟 151
臥 151
訣 150
撕 149
償 148
匠 148
吊 148
哀 148
橡 148
穀 148
緒 148
蠟 148
伽 147
君 147
誓 147
【 146
】 146
乙 146
垮 146
屁 146
己 146
晃 146
泊 146
漲 146
唯 145
彌 145
撫 145
飼 145
鬍 145
嚐 144
寺 144
憾 144
墜 143
弊 143
扶 143
烷 143
砸 143
勾 142
吋 142
洪 142
磷 142
腰 142
氮 141
籠 141
郡 141
倆 140
刪 140
翔 140
闡 140
韋 140
♫ 139
划 139
炫 139
緻 139
鮪 139
摘 138
旨 138
熔 138
皂 138
矮 138
誼 138
仙 137
并 137
抖 137
渦 137
肖 137
仗 136
劫 136
咪 136
燥 136
畜 136
訟 136
賀 136
錶 136
隧 136
咒 135
抹 135
捨 135
朱 135
禧 135
籲 135
詭 135
儕 134
嘯 134
泣 134
溜 134
秩 134
糾 134
蛙 134
頗 134
冥 133
嶼 133
董 133
躁 133
鋒 133
鹿 133
嘲 132
寵 132
轟 132
颶 132
履 131
秋 131
筋 131
茨 131
釘 131
黛 131
嫁 130
攤 130
昇 130
穎 130
駝 130
鮑 130
í 129
窩 129
蕉 129
乃 128
傻 128
崔 128
徙 128
愧 128
瀕 128
罵 128
聘 128
鍊 128
駐 128
喉 127
噁 127
柴 127
漿 127
灑 127
穌 127
蕩 127
喘 126
姑 126
棍 126
潘 126
雀 126
氛 125
篷 125
翁 125
倦 124
夷 124
戚 124
撲 124
撿 124
螂 124
軀 124
辜 124
凸 123
嶄 123
括 123
窄 123
腕 123
蓬 123
迦 123
鴨 123
壺 122
桃 122
皺 122
祂 122
蔓 122
諒 122
陋 122
塌 121
慷 121
撤 121
浩 121
瘦 121
骸 121
泌 120
猿 120
癲 120
盔 120
蒼 120
覓 120
堵 119
殿 119
硫 119
胚 119
僚 118
努 118
廟 118
挨 118
澡 118
顫 118
墮 117
嵌 117
幟 117
株 117
稚 117
粘 117
釐 117
= 116
伺 116
沼 116
浦 116
纜 116
采 116
庸 115
拾 115
札 115
菁 115
隙 115
哨 114
啓 114
坎 114
枯 114
沫 114
築 114
脖 114
阱 114
飪 114
á 112
菇 112
蔽 112
薇 112
鸚 112
喇 111
崗 111
挽 111
鴿 111
券 110
妒 110
嫩 110
癇 110
僵 109
奢 109
嫉 109
曝 109
槽 109
濟 109
稻 109
賄 109
佐 108
侷 108
刮 108
彗 108
惹 108
慕 108
栽 108
瓊 108
艦 108
辣 108
鱷 108
崛 107
悠 107
溪 107
熬 107
盼 107
碩 107
涼 106
渺 106
芽 106
逗 106
喀 105
姨 105
帆 105
廈 105
押 105
拇 105
搏 105
攔 105
燭 105
瞭 105
砂 105
裹 105
呃 104
敞 104
淘 104
滯 104
駱 104
沾 103
莖 103
蕭 103
逛 103
函 102
擲 102
澱 102
疇 102
祭 102
窺 102
膏 102
芙 102
酶 102
夕 101
宴 101
弓 101
抄 101
旺 101
茱 101
蜻 101
鑑 101
駁 101
癡 100
癢 100
芒 100
? 99
个 99
悄 99
柬 99
皿 99
禽 99
舍 99
頒 99
扁 98
甸 98
笛 98
鈔 98
厄 97
墳 97
萎 97
寡 96
憫 96
楚 96
蝶 96
趾 96
饒 96
壘 95
曬 95
爍 95
甦 95
紮 95
貶 95
屆 94
贖 94
暈 93
眉 93
齣 93
撇 92
枚 92
糙 92
緬 92
蘊 92
衫 92
遣 92
「 91
拳 91
爪 91
茁 91
蜓 91
蟑 91
襯 91
輝 91
妝 90
恒 90
棚 90
狠 90
竹 90
虧 90
銜 90
啥 89
寨 89
檯 89
蟹 89
岡 88
恤 88
没 88
繳 88
虹 88
蝸 88
袍 88
倘 87
欖 87
淫 87
爽 87
蘑 87
饑 87
摯 86
肆 86
賊 86
悖 85
焰 85
畝 85
盈 85
臣 85
賜 85
侖 84
僧 84
堤 84
奎 84
憎 84
汰 84
泄 84
睜 84
縛 84
衆 84
裙 84
骯 84
嚮 83
穫 83
鄙 83
酮 83
鉅 83
叮 82
埔 82
崖 82
攪 82
舟 82
塘 81
妓 81
峻 81
橄 81
襪 81
ö 80
卜 80
沸 80
溺 80
莓 80
褐 80
銘 80
鳳 80
妄 79
廂 79
捍 79
瑰 79
砰 79
碌 79
聳 79
閣 79
靴 79
靶 79
黴 79
」 78
剔 78
烘 78
疚 78
稽 78
繃 78
酪 78
馴 78
○ 77
姦 77
娘 77
彰 77
睪 77
藤 77
抉 76
捏 76
杏 76
杰 76
槳 76
瓣 76
紗 76
輟 76
鍾 76
闖 76
勘 75
恕 75
斗 75
淆 75
溢 75
玫 75
瑣 75
甩 75
疤 75
蓮 75
嗡 74
妨 74
氦 74
溉 74
茫 74
釣 74
陀 74
鴻 74
俯 73
吼 73
嘗 73
嫌 73
弧 73
擷 73
曆 73
瀉 73
竅 73
缸 73
舅 73
錫 73
頑 73
勉 72
嗜 72
栓 72
潑 72
煞 72
瑕 72
矯 72
艷 72
茅 72
鋁 72
鎊 72
馳 72
忱 71
杆 71
狩 71
痴 71
紡 71
勸 70
碧 70
鷲 70
暑 69
梨 69
炮 69
疹 69
籬 69
萃 69
迺 69
鍋 69
鞭 69
ㄧ 68
丙 68
匆 68
卸 68
噠 68
廓 68
檻 68
氯 68
琪 68
竄 68
聼 68
虔 68
鋸 68
鍛 68
顱 68
侮 67
嘔 67
嚨 67
奠 67
樞 67
産 67
疵 67
瞞 67
祉 67
蝴 67
隕 67
侈 66
崙 66
椰 66
氨 66
淇 66
淪 66
貯 66
隘 66
府 65
恭 65
斐 65
凹 64
懈 64
欽 64
毅 64
煽 64
賂 64
鉤 64
馭 64
乖 63
俠 63
唇 63
慟 63
攸 63
杖 63
淵 63
渾 63
熵 63
叭 62
唾 62
娶 62
巔 62
帥 62
戳 62
斧 62
椒 62
槓 62
櫚 62
渠 62
豫 62
) 61
匱 61
嘻 61
噓 61
嚼 61
寞 61
悼 61
沛 61
澆 61
眨 61
簿 61
菈 61
鑄 61
鮭 61
亥 60
婪 60
橙 60
茂 60
鰭 60
ó 59
嗶 59
戮 59
昭 59
来 59
燙 59
苛 59
詛 59
譴 59
釀 59
鑒 59
‘ 58
乍 58
乞 58
宇 58
柵 58
澄 58
瀑 58
簾 58
貞 58
閡 58
为 57
侯 57
妖 57
嬤 57
孵 57
懇 57
羚 57
逸 57
鈣 57
僑 56
兜 56
哎 56
憊 56
掀 56
枕 56
箏 56
翠 56
衞 56
赴 56
蹺 56
轄 56
霜 56
么 55
倚 55
凰 55
匈 55
巷 55
扛 55
撓 55
殆 55
瓷 55
聾 55
萌 55
跋 55
錐 55
陵 55
夸 54
扼 54
熄 54
犀 54
盞 54
絨 54
謠 54
雛 54
頃 54
傭 53
歎 53
灼 53
瑜 53
窒 53
絞 53
絶 53
臀 53
趁 53
郎 53
鈾 53
吶 52
嬉 52
拙 52
梵 52
楊 52
汲 52
渣 52
螃 52
豔 52
轍 52
迄 52
霄 52
仲 51
冗 51
咳 51
坪 51
壟 51
姪 51
娩 51
斬 51
朋 51
檬 51
檸 51
瀚 51
煎 51
苯 51
蔥 51
訃 51
誦 51
賤 51
〈 50
〉 50
・ 50
嗚 50
怯 50
栩 50
漬 50
狸 50
盃 50
瞰 50
砲 50
綽 50
賠 50
頰 50
髖 50
俘 49
傅 49
屑 49
愁 49
摒 49
昔 49
炒 49
蚌 49
醣 49
_ 48
係 48
剎 48
吟 48
姬 48
徘 48
惰 48
朽 48
柄 48
毆 48
狒 48
祥 48
膩 48
蕃 48
豎 48
賢 48
逢 48
遽 48
馮 48
悍 47
毋 47
漩 47
牡 47
瞥 47
胱 47
蕊 47
踪 47
鞏 47
飆 47
餌 47
佑 46
侍 46
僻 46
呵 46
搗 46
柳 46
櫥 46
烯 46
珀 46
癥 46
肘 46
茸 46
貘 46
酋 46
錦 46
圭 45
徊 45
拐 45
拱 45
擱 45
洽 45
煌 45
痊 45
竿 45
腥 45
蠣 45
@ 44
倭 44
刃 44
匪 44
吱 44
噩 44
壩 44
孢 44
晴 44
瞎 44
瞪 44
禪 44
稠 44
緯 44
縣 44
芥 44
閥 44
闢 44
髦 44
鬚 44
鱈 44
鹹 44
体 43
悚 43
昧 43
泵 43
瀝 43
焚 43
牟 43
疆 43
盎 43
踝 43
迥 43
魁 43
姥 42
岌 42
强 42
捩 42
掏 42
搔 42
暱 42
曠 42
猝 42
獁 42
窘 42
舖 42
藩 42
蜥 42
韻 42
ç 41
è 41
儒 41
唔 41
嗝 41
婁 41
攣 41
梁 41
淑 41
滔 41
濱 41
狐 41
瞻 41
簧 41
繹 41
肋 41
釷 41
霹 41
〇 40
伎 40
咕 40
喂 40
囑 40
奬 40
岔 40
恍 40
棺 40
燕 40
瘟 40
綫 40
誡 40
諜 40
賬 40
趴 40
蹲 40
酗 40
鑿 40
顎 40
ã 39
会 39
劾 39
咎 39
唉 39
墟 39
彥 39
樁 39
澀 39
矚 39
絆 39
蔔 39
跪 39
蹦 39
鈍 39
僕 38
拌 38
搐 38
涅 38
睾 38
范 38
蘆 38
蛻 38
蛾 38
蟎 38
逾 38
靂 38
丑 37
啪 37
够 37
榴 37
氟 37
痙 37
紊 37
締 37
繡 37
蠶 37
鐮 37
侏 36
凳 36
匣 36
咀 36
慧 36
捫 36
斃 36
梳 36
樸 36
汐 36
瘡 36
綱 36
綻 36
脾 36
褪 36
訶 36
証 36
酚 36
鏽 36
陡 36
霖 36
ï 35
〞 35
乒 35
勻 35
嘶 35
囪 35
屎 35
峭 35
橇 35
橢 35
殭 35
澈 35
癖 35
紳 35
繭 35
腋 35
舔 35
蔑 35
蜴 35
遏 35
銬 35
鋰 35
( 34
à 34
乓 34
亟 34
凶 34
嚕 34
岳 34
氾 34
渥 34
猖 34
痲 34
穹 34
繆 34
葵 34
螳 34
蠕 34
褶 34
諺 34
鑲 34
顳 34
餚 34
餡 34
亭 33
哮 33
噗 33
峇 33
懦 33
晉 33
曙 33
槌 33
檳 33
歪 33
綢 33
翹 33
膛 33
芮 33
芯 33
蕪 33
鄭 33
醃 33
鏟 33
哉 32
捧 32
时 32
曳 32
样 32
沌 32
涸 32
狡 32
痢 32
秤 32
舵 32
芳 32
薛 32
褻 32
諱 32
说 32
閘 32
ñ 31
兌 31
卦 31
厘 31
崎 31
嶺 31
朔 31
梗 31
江 31
湛 31
漣 31
秉 31
羨 31
脣 31
輾 31
輿 31
鰻 31
傍 30
喧 30
嗽 30
嘎 30
扉 30
揍 30
敍 30
洶 30
溼 30
漪 30
獗 30
痘 30
繽 30
肽 30
苔 30
蜷 30
螈 30
袱 30
^ 29
° 29
仕 29
俏 29
哼 29
嗓 29
嚏 29
垢 29
墻 29
夭 29
榨 29
炙 29
玄 29
紉 29
紓 29
肇 29
菩 29
蔗 29
蠑 29
裘 29
贅 29
鄂 29
鈦 29
鉀 29
錘 29
鎚 29
鶴 29
剃 28
咚 28
哄 28
实 28
屢 28
廿 28
抨 28
拭 28
汪 28
烙 28
燼 28
琢 28
瘠 28
芋 28
蚜 28
蚪 28
蝌 28
质 28
蹂 28
躪 28
轎 28
鐳 28
骰 28
魟 28
ä 27
儉 27
咯 27
婭 27
寐 27
弭 27
彭 27
撮 27
旭 27
暇 27
檀 27
焊 27
矇 27
种 27
粥 27
翱 27
腱 27
蛤 27
釁 27
勳 26
咻 26
憧 26
懾 26
攏 26
晝 26
晦 26
棱 26
歹 26
沐 26
燦 26
爹 26
痹 26
眩 26
睫 26
瞳 26
硏 26
筏 26
綴 26
胳 26
莽 26
蔭 26
諦 26
跤 26
鍍 26
鏢 26
闔 26
鞘 26
\ 25
俊 25
劈 25
囤 25
尉 25
憬 25
拷 25
灶 25
筍 25
臆 25
虜 25
蛀 25
衹 25
詠 25
赦 25
逕 25
鄧 25
霉 25
顔 25
鱗 25
鵡 25
鼬 25
ü 24
ō 24
佬 24
凋 24
墾 24
媲 24
怡 24
惶 24
揣 24
攬 24
暮 24
梢 24
濺 24
甥 24
碾 24
穗 24
窪 24
緝 24
縈 24
膊 24
苷 24
謗 24
譚 24
鎂 24
鞍 24
鲁 24
𥚃 24
决 23
卒 23
卿 23
啞 23
嘟 23
嚥 23
寇 23
惕 23
憋 23
挾 23
捆 23
掰 23
现 23
畸 23
瘀 23
礫 23
窯 23
臼 23
詆 23
豌 23
踵 23
蹣 23
鈉 23
靡 23
餒 23
魄 23
魏 23
鮟 23
鱇 23
齋 23
< 22
> 22
劉 22
勿 22
囂 22
奥 22
屜 22
帖 22
御 22
扳 22
抒 22
暨 22
欸 22
濤 22
瀰 22
炬 22
焙 22
猾 22
睦 22
砌 22
稜 22
簸 22
胜 22
臍 22
茉 22
葫 22
蕈 22
薑 22
藹 22
螫 22
蟀 22
蟋 22
誨 22
邱 22
釦 22
鋅 22
霾 22
驢 22
鯉 22
俾 21
别 21
咆 21
唷 21
徽 21
慚 21
拂 21
拴 21
揉 21
煥 21
眶 21
眺 21
穢 21
纂 21
蟾 21
袒 21
跚 21
蹄 21
軼 21
辰 21
醯 21
霰 21
鷗 21
⁄ 20
㚈 20
云 20
亢 20
剷 20
啜 20
喲 20
嗒 20
圳 20
婉 20
嬌 20
寢 20
嵗 20
嶇 20
怠 20
昌 20
枷 20
殯 20
珈 20
琉 20
疙 20
疽 20
瘩 20
硝 20
簷 20
维 20
膳 20
荼 20
蛆 20
蜒 20
蜿 20
遼 20
醞 20
錮 20
间 20
黒 20
● 19
冕 19
啃 19
喃 19
嗑 19
嘈 19
妲 19
屹 19
幀 19
恙 19
摻 19
敷 19
桅 19
樺 19
櫻 19
氈 19
濘 19
熨 19
统 19
耽 19
肛 19
蘚 19
蝨 19
褓 19
豁 19
跛 19
过 19
遂 19
酌 19
酯 19
醛 19
镜 19
* 18
佃 18
僥 18
兮 18
几 18
叨 18
喙 18
嘍 18
嘩 18
壕 18
学 18
宛 18
峙 18
弈 18
摹 18
斂 18
柚 18
榖 18
毁 18
瀆 18
犁 18
猥 18
眷 18
睿 18
篤 18
縷 18
翩 18
聶 18
虞 18
誹 18
还 18
逍 18
鉗 18
骷 18
髏 18
魷 18
× 17
侃 17
啄 17
堊 17
弔 17
忒 17
惘 17
攫 17
旬 17
桂 17
涕 17
湍 17
狙 17
琥 17
瘍 17
絃 17
絛 17
耆 17
菊 17
蒲 17
蚓 17
蚤 17
蚯 17
蠍 17
觭 17
迂 17
远 17
遨 17
醋 17
閾 17
鰓 17
麪 17
黯 17
鼎 17
ā 16
α 16
β 16
― 16
从 16
儂 16
冀 16
吳 16
咽 16
唬 16
孝 16
幢 16
徐 16
揪 16
柢 16
楣 16
瘁 16
睞 16
籽 16
粟 16
絢 16
綺 16
緹 16
胥 16
蔚 16
蜢 16
见 16
蹋 16
輒 16
迭 16
逅 16
邂 16
酥 16
鯛 16
伶 15
俚 15
倪 15
动 15
发 15
变 15
吮 15
吾 15
咧 15
嘖 15
嚷 15
坍 15
娓 15
媛 15
嫖 15
孜 15
孰 15
宙 15
寮 15
径 15
惦 15
抛 15
据 15
昰 15
晾 15
杭 15
棠 15
楔 15
楷 15
横 15
淌 15
淩 15
滌 15
矢 15
礅 15
祟 15
簇 15
羣 15
羹 15
耙 15
腓 15
臻 15
苟 15
蚱 15
諳 15
醚 15
鉭 15
銹 15
錨 15
頹 15
鬣 15
麋 15
麩 15
ù 14
佣 14
佼 14
冤 14
咔 14
咨 14
啼 14
喋 14
嗆 14
嚎 14
墅 14
处 14
奄 14
宫 14
寥 14
忡 14
擡 14
枉 14
殃 14
淒 14
潟 14
焉 14
熠 14
燉 14
瑙 14
瘙 14
硼 14
竇 14
箇 14
篡 14
纳 14
细 14
羈 14
謾 14
辮 14
醺 14
閹 14
颱 14
馨 14
鳩 14
ø 13
π 13
凈 13
却 13
吁 13
呻 13
垣 13
奸 13
忿 13
惚 13
惟 13
懊 13
懺 13
斟 13
曦 13
梟 13
渲 13
琦 13
畔 13
砷 13
窖 13
笆 13
箔 13
箴 13
縝 13
给 13
蒜 13
蔻 13
蛞 13
蛹 13
蜀 13
蜇 13
蝓 13
覷 13
詫 13
讲 13
豈 13
貽 13
迸 13
遛 13
鈳 13
闌 13
题 13
餾 13
验 13
魘 13
黍 13
ú 12
̇ 12
丐 12
丶 12
侄 12
傀 12
儡 12
儼 12
冶 12
卅 12
厥 12
噱 12
夯 12
媚 12
对 12
帷 12
悴 12
挹 12
揀 12
摟 12
撩 12
擧 12
晤 12
曖 12
朦 12
殞 12
毗 12
气 12
沁 12
泯 12
漓 12
潢 12
熾 12
燴 12
璨 12
矗 12
磺 12
緘 12
约 12
羔 12
菍 12
薰 12
蝗 12
蝟 12
襟 12
躬 12
轆 12
遁 12
遑 12
錠 12
鐸 12
鐺 12
霓 12
鯡 12
® 11
ë 11
ô 11
万 11
佇 11
关 11
刹 11
叩 11
咫 11
咸 11
嘮 11
嚙 11
妊 11
娠 11
娼 11
宕 11
宵 11
尔 11
愕 11
憔 11
扈 11
扒 11
掐 11
搆 11
数 11
朧 11
术 11
殲 11
汚 11
滄 11
濁 11
濛 11
炊 11
烴 11
甄 11
甫 11
祇 11
秦 11
絮 11
緞 11
繚 11
胼 11
脚 11
膿 11
芹 11
菱 11
蒿 11
蔡 11
藐 11
蛄 11
訕 11
貲 11
蹊 11
蹩 11
蹴 11
迹 11
遐 11
鑣 11
閲 11
隼 11
鞦 11
韆 11
頜 11
; 10
© 10
ê 10
ī 10
俐 10
兀 10
叟 10
吠 10
咐 10
啵 10
啾 10
嘰 10
图 10
妃 10
惻 10
憚 10
戾 10
拗 10
捅 10
揹 10
搓 10
殉 10
殷 10
氓 10
汞 10
淤 10
瀾 10
狓 10
瑯 10
璀 10
瓢 10
疣 10
痣 10
瞠 10
筷 10
箋 10
篝 10
綑 10
缩 10
翡 10
胝 10
膈 10
臬 10
舶 10
芸 10
苣 10
荊 10
菠 10
萵 10
蛭 10
轨 10
进 10
郭 10
鉑 10
阳 10
陲 10
雹 10
静 10
餬 10
駡 10
黝 10
〝 9
两 9
亙 9
俳 9
兰 9
剋 9
剥 9
勺 9
压 9
咿 9
哽 9
幌 9
廝 9
当 9
徉 9
徜 9
忖 9
恿 9
慫 9
拽 9
撬 9
擘 9
攢 9
榻 9
樽 9
殻 9
汶 9
滙 9
潦 9
澎 9
熙 9
燻 9
离 9
结 9
翌 9
脱 9
腮 9
膺 9
藜 9
蜍 9
装 9
裨 9
贓 9
踰 9
踱 9
踴 9
軒 9
运 9
逞 9
鈎 9
霎 9
饉 9
饗 9
鱒 9
齧 9
ì 8
δ 8
อ 8
东 8
丫 8
减 8
吝 8
呐 8
呦 8
呲 8
啕 8
喳 8
噶 8
国 8
圃 8
垠 8
壅 8
妞 8
孑 8
孚 8
孳 8
将 8
岱 8
幡 8
庶 8
彆 8
恣 8
憩 8
拈 8
拚 8
拮 8
攘 8
旼 8
暸 8
曰 8
杞 8
极 8
棗 8
椋 8
榭 8
橈 8
毬 8
涓 8
温 8
灸 8
熒 8
牴 8
獾 8
玲 8
璐 8
甾 8
盹 8
眈 8
睏 8
瞇 8
瞌 8
瞼 8
矣 8
磐 8
祢 8
禾 8
窠 8
糗 8
糰 8
脉 8
腑 8
茴 8
蔣 8
螨 8
裴 8
襄 8
詼 8
諭 8
譏 8
证 8
诉 8
賃 8
躇 8
躊 8
轅 8
逹 8
邸 8
鈷 8
鐐 8
鑷 8
银 8
问 8
际 8
鞠 8
鷄 8
齦 8
余 7
儸 7
冉 7
况 7
剽 7
劵 7
叠 7
叼 7
呂 7
呱 7
咦 7
嗦 7
噎 7
囓 7
囘 7
壹 7
婊 7
嫂 7
寻 7
层 7
崑 7
彬 7
徴 7
怦 7
愜 7
愿 7
慄 7
慵 7
懵 7
戊 7
捎 7
摀 7
敎 7
无 7
暉 7
毎 7
浹 7
涌 7
湃 7
滕 7
犛 7
獺 7
瑩 7
痠 7
癬 7
睬 7
祐 7
稼 7
綵 7
繕 7
红 7
经 7
罌 7
羥 7
羯 7
耘 7
肼 7
芻 7
茵 7
蕨 7
蜚 7
蝎 7
螯 7
袓 7
袤 7
褸 7
襤 7
訢 7
詰 7
誣 7
认 7
让 7
踮 7
轻 7
邃 7
鈽 7
銻 7
鎳 7
颼 7
餃 7
鷸 7
â 6
ل 6
م 6
ي 6
亚 6
仟 6
佯 6
偎 6
卉 6
单 6
卯 6
厨 6
叙 6
呸 6
喵 6
嗣 6
嗤 6
噥 6
噹 6
囿 6
坨 6
坷 6
埸 6
复 6
媳 6
嫻 6
孓 6
孿 6
宝 6
屌 6
崽 6
嵐 6
嵴 6
帚 6
幔 6
廄 6
开 6
弛 6
彫 6
忑 6
愣 6
懨 6
战 6
捱 6
掂 6
摞 6
擄 6
擒 6
敝 6
斕 6
旳 6
査 6
椿 6
樵 6
氚 6
淖 6
点 6
状 6
玷 6
琵 6
睽 6
碴 6
磗 6
祸 6
祿 6
竣 6
粱 6
终 6
缽 6
聿 6
肓 6
胭 6
腴 6
苜 6
莢 6
葦 6
蓉 6
蓿 6
蚣 6
蛔 6
蜈 6
蟒 6
蟬 6
衪 6
观 6
訇 6
詡 6
諉 6
謨 6
论 6
话 6
该 6
貂 6
费 6
赭 6
踉 6
蹌 6
蹭 6
輓 6
遢 6
邋 6
釉 6
释 6
鉻 6
鋤 6
鎘 6
鐲 6
铃 6
键 6
閑 6
难 6
靛 6
颳 6
騖 6
髂 6
鮫 6
鯖 6
鱸 6
鴕 6
鵑 6
鵰 6
鷈 6
鷿 6
鹵 6
麟 6
黄 6
鼴 6
£ 5
¥ 5
ē 5
ω 5
′ 5
▪ 5
与 5
亳 5
仅 5
佝 5
佷 5
俑 5
倔 5
倣 5
僂 5
兹 5
凜 5
刁 5
勛 5
匍 5
匐 5
区 5
吩 5
咄 5
咋 5
唆 5
唑 5
嘀 5
嚒 5
嚓 5
坤 5
塚 5
墉 5
婿 5
嬸 5
寳 5
屯 5
岑 5
岬 5
帛 5
带 5
幗 5
应 5
张 5
弩 5
忐 5
恬 5
悸 5
惺 5
戎 5
户 5
揄 5
揶 5
擰 5
斡 5
昴 5
曹 5
杓 5
枱 5
柑 5
栗 5
桔 5
棧 5
椘 5
楓 5
榔 5
榕 5
槃 5
樟 5
櫛 5
歴 5
氡 5
氪 5
测 5
浣 5
涂 5
涇 5
涎 5
满 5
潜 5
濬 5
燎 5
牒 5
獠 5
琺 5
璇 5
璜 5
瓏 5
甕 5
疸 5
皈 5
砧 5
磕 5
祀 5
祼 5
积 5
称 5
稈 5
稔 5
稟 5
窿 5
竺 5
简 5
粕 5
縟 5
纽 5
组 5
胯 5
脛 5
舐 5
莞 5
葷 5
蕙 5
蜊 5
褥 5
謅 5
许 5
试 5
谢 5
蹶 5
蹼 5
躡 5
载 5
达 5
适 5
郁 5
酣 5
酩 5
鈈 5
鈞 5
銫 5
鎢 5
鏘 5
鑚 5
鑼 5
陛 5
隅 5
霆 5
靨 5
韁 5
须 5
餿 5
駿 5
騁 5
騾 5
鬃 5
鱖 5
鼾 5
 5
` 4
ˊ 4
س 4
ع 4
ย 4
ร 4
่ 4
‬ 4
佻 4
倏 4
僮 4
儿 4
冪 4
刋 4
剁 4
匕 4
叱 4
吏 4
呤 4
咩 4
响 4
哢 4
啖 4
喷 4
嗖 4
嗷 4
噘 4
噤 4
围 4
圣 4
块 4
壆 4
娣 4
媾 4
嫚 4
嬴 4
宋 4
尹 4
岁 4
峨 4
巒 4
巖 4
帮 4
廬 4
彤 4
怀 4
怵 4
悽 4
愫 4
戛 4
换 4
捶 4
搥 4
搧 4
撙 4
攆 4
曇 4
杳 4
梆 4
梧 4
歿 4
氘 4
氰 4
汝 4
沓 4
浬 4
淬 4
渭 4
湮 4
潺 4
澹 4
烊 4
熏 4
燧 4
爱 4
牀 4
犠 4
犢 4
猫 4
獃 4
痂 4
痰 4
痾 4
瘸 4
皙 4
盂 4
盘 4
瞅 4
确 4
碘 4
礬 4
祆 4
祗 4
穏 4
粑 4
粼 4
糜 4
糢 4
緃 4
线 4
绍 4
绕 4
续 4
罗 4
羡 4
耦 4
舆 4
节 4
苞 4
苺 4
茜 4
茹 4
萍 4
蒞 4
藴 4
蚩 4
蝿 4
螽 4
蠱 4
襁 4
覬 4
誒 4
謔 4
譁 4
譎 4
请 4
赢 4
跃 4
跩 4
跺 4
踞 4
踫 4
踹 4
蹙 4
蹬 4
軋 4
轤 4
较 4
迢 4
酊 4
鉚 4
銑 4
銥 4
銲 4
鋃 4
鋨 4
鋯 4
錳 4
鎗 4
鎝 4
鎵 4
鐡 4
长 4
閂 4
隷 4
雾 4
靚 4
頤 4
顿 4
领 4
颗 4
鱘 4
鳶 4
鵟 4
鹅 4
麝 4
黜 4
龔 4
龕 4
! 3
 3
¡ 3
¿ 3
æ 3
ð 3
ʾ 3
ˋ 3
τ 3
в 3
о 3
ы 3
‭ 3
€ 3
ㄠ 3
ㄡ 3
㖿 3
争 3
产 3
仆 3
众 3
侧 3
僞 3
兴 3
冲 3
剌 3
剧 3
劊 3
匾 3
参 3
吗 3
吭 3
唏 3
唵 3
嗇 3
嘌 3
嘭 3
囧 3
圴 3
堿 3
墩 3
壑 3
壬 3
头 3
奚 3
娌 3
婀 3
婴 3
婷 3
嫵 3
嫺 3
孀 3
孱 3
孽 3
尽 3
屣 3
崁 3
巍 3
帑 3
帧 3
广 3
异 3
弒 3
彪 3
徧 3
恫 3
惋 3
抺 3
拄 3
掮 3
搪 3
携 3
搾 3
斋 3
暄 3
机 3
杠 3
柩 3
栿 3
桁 3
桎 3
梏 3
榚 3
榷 3
樍 3
檜 3
残 3
氬 3
沬 3
沱 3
涷 3
渙 3
渝 3
滚 3
漱 3
漾 3
潸 3
瀟 3
灯 3
烽 3
燬 3
燿 3
狽 3
猬 3
獷 3
獼 3
玆 3
环 3
珉 3
璞 3
璧 3
町 3
画 3
痿 3
瘴 3
癆 3
癸 3
皰 3
盗 3
盥 3
眀 3
眸 3
矜 3
矫 3
砥 3
秃 3
窈 3
窕 3
笙 3
笞 3
筑 3
箂 3
箍 3
箝 3
籟 3
籮 3
类 3
紕 3
紜 3
絀 3
綹 3
纔 3
继 3
缓 3
编 3
腆 3
舛 3
舷 3
艮 3
莠 3
莱 3
萨 3
蕁 3
蕯 3
薔 3
蚕 3
蛉 3
袐 3
裱 3
裳 3
覦 3
规 3
訛 3
訥 3
謄 3
謐 3
譙 3
计 3
记 3
诺 3
賑 3
赚 3
跎 3
踨 3
蹉 3
輊 3
釜 3
鈀 3
鈹 3
銨 3
鋌 3
録 3
鍁 3
鍥 3
鍰 3
鎧 3
鏗 3
閨 3
随 3
隠 3
隣 3
雯 3
靭 3
顴 3
项 3
飞 3
饞 3
驍 3
髪 3
髯 3
鯷 3
鯽 3
鰲 3
鱂 3
鱔 3
鲔 3
鴯 3
鵲 3
鶓 3
鶩 3
鶯 3
鷺 3
麓 3
麴 3
鼩 3
{ 2
} 2
 2
î 2
ò 2
ć 2
ğ 2
ı 2
š 2
ǔ 2
̀ 2
γ 2
μ 2
σ 2
м 2
ة 2
د 2
ص 2
ط 2
ك 2
ن 2
ه 2
و 2
प 2
म 2
र 2
े 2
् 2
ḥ 2
ẹ 2
ọ 2
→ 2
∇ 2
− 2
∙ 2
⋅ 2
♯ 2
き 2
の 2
れ 2
ㄅ 2
ㄌ 2
ㄎ 2
ㄟ 2
丢 2
亲 2
亿 2
伕 2
佗 2
佘 2
俟 2
倂 2
偌 2
傌 2
傚 2
僈 2
儍 2
党 2
兢 2
养 2
冽 2
凯 2
刈 2
刨 2
卍 2
卧 2
厠 2
厮 2
厰 2
吒 2
吓 2
吖 2
员 2
咂 2
啁 2
啉 2
啶 2
喏 2
嚢 2
囔 2
囗 2
圑 2
场 2
塲 2
増 2
奐 2
奖 2
妁 2
妍 2
妾 2
姚 2
嫰 2
宽 2
寛 2
寰 2
导 2
岀 2
峡 2
嶽 2
师 2
廸 2
弹 2
徨 2
徳 2
忤 2
态 2
怔 2
怙 2
总 2
悵 2
悻 2
惯 2
惴 2
憨 2
戕 2
戯 2
扙 2
扺 2
担 2
拎 2
挂 2
挐 2
掣 2
摰 2
擂 2
擕 2
擤 2
擯 2
断 2
昵 2
显 2
晒 2
晩 2
晷 2
暹 2
曜 2
曽 2
朶 2
杂 2
杵 2
枪 2
枰 2
柺 2
柿 2
桉 2
梠 2
楦 2
槁 2
槐 2
様 2
樊 2
欢 2
欧 2
歛 2
歩 2
歳 2
殄 2
氂 2
氖 2
氙 2
泅 2
洐 2
淂 2
淮 2
渐 2
渤 2
溴 2
滂 2
濳 2
瀨 2
烱 2
焗 2
煦 2
煲 2
燄 2
犒 2
犰 2
狳 2
猪 2
玳 2
珂 2
琶 2
瑁 2
瑋 2
甯 2
电 2
疝 2
疥 2
痍 2
痤 2
痼 2
瘻 2
瘾 2
癟 2
眇 2
矞 2
码 2
硅 2
硒 2
碁 2
碉 2
秏 2
稳 2
窥 2
竽 2
筐 2
筛 2
籓 2
糅 2
紈 2
緲 2
縶 2
縹 2
纍 2
级 2
纸 2
纹 2
绝 2
缐 2
缚 2
缝 2
罂 2
罈 2
罔 2
罝 2
羧 2
羸 2
耹 2
耿 2
联 2
聴 2
胛 2
脢 2
膾 2
臃 2
臊 2
舀 2
芘 2
苑 2
荀 2
莾 2
菡 2
萋 2
葩 2
葱 2
葺 2
蓝 2
薈 2
藪 2
虽 2
蚵 2
蚺 2
蜉 2
蝣 2
螅 2
袞 2
裇 2
褒 2
褔 2
褫 2
褺 2
襞 2
覲 2
觴 2
訐 2
詣 2
諢 2
识 2
诏 2
豺 2
賁 2
賅 2
贗 2
负 2
资 2
赖 2
赛 2
赞 2
赧 2
踽 2
蹓 2
躂 2
躉 2
躋 2
躥 2
軛 2
轂 2
转 2
输 2
辟 2
边 2
酐 2
酰 2
釙 2
鉆 2
鉸 2
鍺 2
鎬 2
鐧 2
针 2
閔 2
関 2
闗 2
门 2
阪 2
雋 2
靦 2
韃 2
韜 2
頦 2
页 2
顺 2
预 2
飴 2
餽 2
饈 2
饌 2
饕 2
馥 2
駒 2
髋 2
髻 2
鬨 2
鯁 2
鯰 2
鰺 2
鲜 2
鴇 2
鵐 2
鵜 2
鶇 2
鶘 2
鶥 2
鸛 2
鹰 2
麾 2
黠 2
黽 2
齙 2
齲 2
 1
¢ 1
¤ 1
« 1
­ 1
¶ 1
» 1
å 1
û 1
ă 1
č 1
ě 1
ť 1
ū 1
ż 1
ǐ 1
ǒ 1
̊ 1
θ 1
φ 1
χ 1
а 1
и 1
н 1
п 1
р 1
с 1
х 1
∞ 1
⋄ 1
ね 1
ㄇ 1
ㄉ 1
ㄋ 1
ㄍ 1
ㄐ 1
ㄑ 1
ㄙ 1
ㄜ 1
ㄝ 1
ㄞ 1
ㄢ 1
ㄣ 1
ㄨ 1
㝷 1
㿂 1
䀚 1
䐘 1
䓬 1
䕶 1
业 1
严 1
丰 1
丼 1
丽 1
举 1
义 1
习 1
书 1
亜 1
仃 1
仵 1
伉 1
传 1
佪 1
侗 1
侘 1
俎 1
俢 1
俬 1
俸 1
倌 1
値 1
倥 1
倩 1
债 1
倾 1
偃 1
偋 1
偕 1
偣 1
傋 1
储 1
傯 1
傹 1
儅 1
儖 1
儷 1
兑 1
冋 1
冏 1
冻 1
凄 1
凅 1
凑 1
処 1
凴 1
刚 1
删 1
刼 1
剂 1
剰 1
剿 1
办 1
务 1
匝 1
匡 1
医 1
华 1
卫 1
卹 1
双 1
叵 1
号 1
吆 1
吔 1
听 1
启 1
吲 1
吽 1
吿 1
咤 1
哆 1
哌 1
唁 1
唄 1
啐 1
啷 1
喫 1
嗄 1
嗞 1
嘣 1
嘸 1
噌 1
噙 1
噵 1
噼 1
嚀 1
嚯 1
囀 1
囌 1
囍 1
囫 1
囯 1
囹 1
圄 1
圆 1
圇 1
圏 1
圜 1
圮 1
坄 1
坚 1
坵 1
垏 1
垛 1
垫 1
垻 1
埗 1
埠 1
堇 1
堰 1
塭 1
墙 1
墬 1
壙 1
声 1
夀 1
奋 1
奕 1
奘 1
奨 1
奻 1
妠 1
妺 1
姍 1
姣 1
姱 1
娱 1
婕 1
婢 1
媞 1
媮 1
嬅 1
嬗 1
嬡 1
嬬 1
孃 1
寿 1
専 1
尅 1
尓 1
尘 1
尙 1
尻 1
屄 1
屝 1
岐 1
岛 1
峋 1
峍 1
峛 1
峯 1
崴 1
嶋 1
嶙 1
巳 1
巿 1
帘 1
幷 1
庄 1
庚 1
庳 1
庵 1
廖 1
廩 1
廰 1
廻 1
弋 1
弘 1
录 1
彻 1
徇 1
徠 1
徦 1
徬 1
忝 1
怏 1
恪 1
悦 1
惆 1
惓 1
惧 1
惬 1
愄 1
愴 1
慍 1
慼 1
憟 1
懐 1
懟 1
懣 1
戍 1
戟 1
扑 1
扞 1
扦 1
报 1
抻 1
拣 1
拥 1
择 1
挈 1
挲 1
挷 1
捂 1
捚 1
捺 1
掦 1
揆 1
揑 1
揩 1
搽 1
摃 1
摄 1
摆 1
摑 1
摖 1
摳 1
撚 1
撢 1
撻 1
擻 1
攥 1
敕 1
敖 1
斁 1
旎 1
旖 1
旧 1
昜 1
暦 1
暪 1
朕 1
朴 1
条 1
杲 1
构 1
枒 1
枓 1
枸 1
柝 1
标 1
桀 1
桐 1
梉 1
棣 1
椴 1
椽 1
楕 1
楞 1
楠 1
楸 1
榆 1
榛 1
榫 1
槨 1
槪 1
槲 1
橐 1
檐 1
櫸 1
欉 1
殛 1
殤 1
殫 1
殮 1
毽 1
氢 1
汛 1
沅 1
沏 1
沽 1
洄 1
洌 1
洟 1
洮 1
浙 1
浼 1
涡 1
涿 1
湄 1
溃 1
滓 1
漥 1
潭 1
澇 1
澍 1
澗 1
濒 1
濔 1
濡 1
瀘 1
炳 1
热 1
煨 1
煱 1
燜 1
牝 1
犄 1
犎 1
狭 1
猁 1
猎 1
猙 1
猞 1
獒 1
獰 1
玀 1
玃 1
玖 1
珐 1
珞 1
珣 1
珥 1
珮 1
珼 1
瑤 1
璄 1
璣 1
璽 1
瓔 1
瓞 1
瓿 1
甪 1
畦 1
疪 1
痁 1
痱 1
瘉 1
瘺 1
癈 1
癩 1
癵 1
皱 1
皸 1
盅 1
盖 1
眊 1
瞟 1
矓 1
碇 1
碸 1
磊 1
磋 1
磧 1
礪 1
祛 1
禀 1
秣 1
秧 1
稣 1
稹 1
穠 1
窍 1
窣 1
窳 1
窸 1
竪 1
竸 1
笈 1
笫 1
筫 1
筱 1
筵 1
篆 1
篙 1
篾 1
簌 1
簍 1
簟 1
簣 1
簪 1
籐 1
籥 1
粖 1
粧 1
粪 1
粵 1
糠 1
糸 1
紂 1
紿 1
絹 1
綣 1
綳 1
綷 1
綸 1
緋 1
緖 1
縂 1
縐 1
縳 1
繈 1
繮 1
纈 1
纒 1
纓 1
纤 1
纪 1
纵 1
绒 1
绩 1
绪 1
绳 1
绿 1
缅 1
缉 1
缪 1
缷 1
罄 1
罅 1
网 1
罸 1
羌 1
羲 1
羶 1
翕 1
耄 1
耪 1
聒 1
聵 1
肮 1
肱 1
肴 1
胆 1
胍 1
胴 1
胶 1
脇 1
脗 1
脯 1
腈 1
腚 1
腩 1
腼 1
膁 1
膘 1
臚 1
臧 1
舎 1
艄 1
艏 1
芉 1
芦 1
芫 1
苒 1
茍 1
荏 1
荖 1
荻 1
荽 1
莘 1
获 1
菏 1
菓 1
萸 1
葆 1
葚 1
葧 1
蒡 1
蓆 1
蔕 1
蕎 1
蕞 1
蕴 1
薊 1
薏 1
藕 1
蘶 1
蘸 1
蚝 1
蚶 1
蛸 1
蜃 1
蜣 1
蜱 1
螬 1
螻 1
蟄 1
蟆 1
蟳 1
蠋 1
蠐 1
蠔 1
蠵 1
衊 1
袈 1
裊 1
裟 1
褂 1
褙 1
襌 1
襠 1
襬 1
覇 1
覈 1
视 1
觎 1
触 1
訌 1
訖 1
詔 1
詬 1
詺 1
誅 1
誆 1
誑 1
誔 1
諂 1
諤 1
諫 1
謢 1
譟 1
譠 1
讉 1
讖 1
讞 1
讨 1
设 1
评 1
诊 1
诠 1
语 1
谈 1
谧 1
豢 1
貉 1
貎 1
賍 1
賒 1
贋 1
责 1
贸 1
贾 1
赠 1
赶 1
趙 1
踡 1
踼 1
躱 1
輞 1
轶 1
辈 1
辍 1
辐 1
辫 1
违 1
迧 1
迼 1
逄 1
选 1
递 1
逬 1
逰 1
遥 1
邇 1
邑 1
邻 1
郝 1
郷 1
醅 1
醍 1
醐 1
醪 1
釒 1
釓 1
釩 1
鈧 1
鈸 1
鉈 1
鉍 1
鉬 1
鉺 1
銓 1
銙 1
銣 1
鋇 1
鋥 1
錸 1
鍆 1
鍬 1
鏤 1
鏨 1
鐙 1
钱 1
钴 1
铁 1
铆 1
铠 1
锋 1
错 1
锥 1
閏 1
閤 1
閻 1
闋 1
闐 1
闕 1
队 1
阮 1
阶 1
陃 1
陞 1
险 1
隂 1
隄 1
隋 1
隐 1
隡 1
隴 1
雁 1
雉 1
霑 1
靼 1
鞣 1
韵 1
頇 1
頽 1
顉 1
顢 1
顥 1
颐 1
颤 1
颯 1
飈 1
飊 1
风 1
飩 1
餇 1
餋 1
餛 1
餞 1
餧 1
饜 1
馀 1
駄 1
駑 1
駙 1
騃 1
驁 1
驛 1
骑 1
鬈 1
鬢 1
鬩 1
鮋 1
鰈 1
鰤 1
鰥 1
鰩 1
鰹 1
鱉 1
鱼 1
鲍 1
鲸 1
鳊 1
鳍 1
鳯 1
鴐 1
鴞 1
鴣 1
鴴 1
鶲 1
鶼 1
鷓 1
鸌 1
鼯 1
鼹 1
齜 1
齪 1
齷 1
龄 1
﨧 1
𤔡 1
𤠣 1
madeupword0000 0
madeupword0001 0
madeupword0002 0
madeupword0003 0
